{
  "version": "1.0",
  "truncation": null,
  "padding": null,
  "added_tokens": [
    {
      "id": 0,
      "content": "[PAD]",
      "single_word": false,
      "lstrip": false,
      "rstrip": false,
      "normalized": false,
      "special": true
    },
    {
      "id": 1,
      "content": "[UNK]",
      "single_word": false,
      "lstrip": false,
      "rstrip": false,
      "normalized": false,
      "special": true
    },
    {
      "id": 2,
      "content": "[CLS]",
      "single_word": false,
      "lstrip": false,
      "rstrip": false,
      "normalized": false,
      "special": true
    },
    {
      "id": 3,
      "content": "[SEP]",
      "single_word": false,
      "lstrip": false,
      "rstrip": false,
      "normalized": false,
      "special": true
    },
    {
      "id": 4,
      "content": "[MASK]",
      "single_word": false,
      "lstrip": false,
      "rstrip": false,
      "normalized": false,
      "special": true
    }
  ],
  "normalizer": {
    "type": "Sequence",
    "normalizers": [
      {
        "type": "NFKC"
      }
    ]
  },
  "pre_tokenizer": {
    "type": "Whitespace"
  },
  "post_processor": null,
  "decoder": null,
  "model": {
    "type": "BPE",
    "dropout": null,
    "unk_token": "[UNK]",
    "continuing_subword_prefix": null,
    "end_of_word_suffix": null,
    "fuse_unk": false,
    "byte_fallback": false,
    "ignore_merges": false,
    "vocab": {
      "[PAD]": 0,
      "[UNK]": 1,
      "[CLS]": 2,
      "[SEP]": 3,
      "[MASK]": 4,
      "!": 5,
      "\"": 6,
      "#": 7,
      "$": 8,
      "%": 9,
      "&": 10,
      "'": 11,
      "(": 12,
      ")": 13,
      "*": 14,
      "+": 15,
      ",": 16,
      "-": 17,
      ".": 18,
      "/": 19,
      "0": 20,
      "1": 21,
      "2": 22,
      "3": 23,
      "4": 24,
      "5": 25,
      "6": 26,
      "7": 27,
      "8": 28,
      "9": 29,
      ":": 30,
      ";": 31,
      "<": 32,
      "=": 33,
      ">": 34,
      "?": 35,
      "@": 36,
      "A": 37,
      "B": 38,
      "C": 39,
      "D": 40,
      "E": 41,
      "F": 42,
      "G": 43,
      "H": 44,
      "I": 45,
      "J": 46,
      "K": 47,
      "L": 48,
      "M": 49,
      "N": 50,
      "O": 51,
      "P": 52,
      "Q": 53,
      "R": 54,
      "S": 55,
      "T": 56,
      "U": 57,
      "V": 58,
      "W": 59,
      "X": 60,
      "Y": 61,
      "Z": 62,
      "[": 63,
      "\\": 64,
      "]": 65,
      "^": 66,
      "_": 67,
      "`": 68,
      "a": 69,
      "b": 70,
      "c": 71,
      "d": 72,
      "e": 73,
      "f": 74,
      "g": 75,
      "h": 76,
      "i": 77,
      "j": 78,
      "k": 79,
      "l": 80,
      "m": 81,
      "n": 82,
      "o": 83,
      "p": 84,
      "q": 85,
      "r": 86,
      "s": 87,
      "t": 88,
      "u": 89,
      "v": 90,
      "w": 91,
      "x": 92,
      "y": 93,
      "z": 94,
      "|": 95,
      "}": 96,
      "~": 97,
      "¡": 98,
      "£": 99,
      "¥": 100,
      "§": 101,
      "°": 102,
      "±": 103,
      "·": 104,
      "¿": 105,
      "Á": 106,
      "Å": 107,
      "Æ": 108,
      "Ç": 109,
      "É": 110,
      "Í": 111,
      "Î": 112,
      "Ñ": 113,
      "Ö": 114,
      "×": 115,
      "Ø": 116,
      "Ú": 117,
      "Ü": 118,
      "Þ": 119,
      "ß": 120,
      "à": 121,
      "á": 122,
      "â": 123,
      "ã": 124,
      "ä": 125,
      "å": 126,
      "æ": 127,
      "ç": 128,
      "è": 129,
      "é": 130,
      "ê": 131,
      "ë": 132,
      "ì": 133,
      "í": 134,
      "î": 135,
      "ï": 136,
      "ð": 137,
      "ñ": 138,
      "ò": 139,
      "ó": 140,
      "ô": 141,
      "ö": 142,
      "ø": 143,
      "ù": 144,
      "ú": 145,
      "û": 146,
      "ü": 147,
      "ý": 148,
      "þ": 149,
      "Ā": 150,
      "ā": 151,
      "ă": 152,
      "ą": 153,
      "ć": 154,
      "Č": 155,
      "č": 156,
      "Đ": 157,
      "đ": 158,
      "Ē": 159,
      "ē": 160,
      "Ĕ": 161,
      "ĕ": 162,
      "ė": 163,
      "ę": 164,
      "ğ": 165,
      "ħ": 166,
      "ī": 167,
      "İ": 168,
      "ı": 169,
      "Ł": 170,
      "ł": 171,
      "ń": 172,
      "Ō": 173,
      "ō": 174,
      "œ": 175,
      "Ś": 176,
      "ś": 177,
      "Ş": 178,
      "ş": 179,
      "Š": 180,
      "š": 181,
      "ţ": 182,
      "ũ": 183,
      "ū": 184,
      "ů": 185,
      "ų": 186,
      "ź": 187,
      "Ż": 188,
      "ż": 189,
      "Ž": 190,
      "ž": 191,
      "ơ": 192,
      "ư": 193,
      "ǎ": 194,
      "ǔ": 195,
      "Ș": 196,
      "ș": 197,
      "ț": 198,
      "ȯ": 199,
      "ɐ": 200,
      "ɑ": 201,
      "ɒ": 202,
      "ɔ": 203,
      "ə": 204,
      "ɛ": 205,
      "ɜ": 206,
      "ɡ": 207,
      "ɢ": 208,
      "ɪ": 209,
      "ɫ": 210,
      "ɳ": 211,
      "ɽ": 212,
      "ɾ": 213,
      "ʁ": 214,
      "ʃ": 215,
      "ʊ": 216,
      "ʋ": 217,
      "ʒ": 218,
      "ʔ": 219,
      "ʕ": 220,
      "ʻ": 221,
      "ʼ": 222,
      "ʾ": 223,
      "ʿ": 224,
      "ˈ": 225,
      "ˌ": 226,
      "ː": 227,
      "́": 228,
      "̃": 229,
      "̥": 230,
      "̯": 231,
      "͍": 232,
      "Α": 233,
      "Δ": 234,
      "Κ": 235,
      "Ν": 236,
      "Π": 237,
      "Τ": 238,
      "Φ": 239,
      "Χ": 240,
      "Ω": 241,
      "ά": 242,
      "έ": 243,
      "ή": 244,
      "ί": 245,
      "α": 246,
      "β": 247,
      "γ": 248,
      "δ": 249,
      "ε": 250,
      "η": 251,
      "θ": 252,
      "ι": 253,
      "κ": 254,
      "λ": 255,
      "μ": 256,
      "ν": 257,
      "ξ": 258,
      "ο": 259,
      "π": 260,
      "ρ": 261,
      "ς": 262,
      "σ": 263,
      "τ": 264,
      "υ": 265,
      "χ": 266,
      "ψ": 267,
      "ω": 268,
      "ό": 269,
      "ύ": 270,
      "ώ": 271,
      "А": 272,
      "Б": 273,
      "В": 274,
      "Г": 275,
      "К": 276,
      "П": 277,
      "Р": 278,
      "С": 279,
      "У": 280,
      "Х": 281,
      "Я": 282,
      "а": 283,
      "в": 284,
      "г": 285,
      "д": 286,
      "е": 287,
      "ж": 288,
      "з": 289,
      "и": 290,
      "й": 291,
      "к": 292,
      "л": 293,
      "м": 294,
      "н": 295,
      "о": 296,
      "п": 297,
      "р": 298,
      "с": 299,
      "т": 300,
      "у": 301,
      "х": 302,
      "ц": 303,
      "ш": 304,
      "ъ": 305,
      "ы": 306,
      "ь": 307,
      "ю": 308,
      "я": 309,
      "є": 310,
      "ֵ": 311,
      "ֶ": 312,
      "ָ": 313,
      "ֹ": 314,
      "ּ": 315,
      "א": 316,
      "ב": 317,
      "ג": 318,
      "ה": 319,
      "ו": 320,
      "ז": 321,
      "ח": 322,
      "י": 323,
      "ל": 324,
      "ם": 325,
      "מ": 326,
      "ן": 327,
      "נ": 328,
      "ס": 329,
      "ף": 330,
      "פ": 331,
      "צ": 332,
      "ר": 333,
      "ש": 334,
      "ת": 335,
      "ء": 336,
      "أ": 337,
      "إ": 338,
      "ا": 339,
      "ب": 340,
      "ة": 341,
      "ت": 342,
      "ث": 343,
      "ج": 344,
      "ح": 345,
      "خ": 346,
      "د": 347,
      "ذ": 348,
      "ر": 349,
      "س": 350,
      "ش": 351,
      "ص": 352,
      "ع": 353,
      "ف": 354,
      "ق": 355,
      "ك": 356,
      "ل": 357,
      "م": 358,
      "ن": 359,
      "ه": 360,
      "و": 361,
      "ي": 362,
      "ܐ": 363,
      "ܕ": 364,
      "ܗ": 365,
      "ܝ": 366,
      "ܠ": 367,
      "ܢ": 368,
      "ܬ": 369,
      "ܲ": 370,
      "ܵ": 371,
      "ं": 372,
      "अ": 373,
      "ई": 374,
      "क": 375,
      "ग": 376,
      "ण": 377,
      "त": 378,
      "द": 379,
      "न": 380,
      "प": 381,
      "ब": 382,
      "म": 383,
      "य": 384,
      "र": 385,
      "ल": 386,
      "व": 387,
      "स": 388,
      "ह": 389,
      "ा": 390,
      "ि": 391,
      "ु": 392,
      "ू": 393,
      "े": 394,
      "ै": 395,
      "्": 396,
      "আ": 397,
      "ল": 398,
      "হ": 399,
      "া": 400,
      "্": 401,
      "ਅ": 402,
      "ਲ": 403,
      "ਹ": 404,
      "ਾ": 405,
      "ੁ": 406,
      "ੱ": 407,
      "അ": 408,
      "ള": 409,
      "ഹ": 410,
      "ാ": 411,
      "്": 412,
      "ก": 413,
      "ค": 414,
      "ง": 415,
      "ช": 416,
      "ซ": 417,
      "ญ": 418,
      "ฐ": 419,
      "ณ": 420,
      "ด": 421,
      "ต": 422,
      "น": 423,
      "บ": 424,
      "ป": 425,
      "พ": 426,
      "ภ": 427,
      "ม": 428,
      "ย": 429,
      "ร": 430,
      "ล": 431,
      "ว": 432,
      "ศ": 433,
      "ษ": 434,
      "ส": 435,
      "ห": 436,
      "อ": 437,
      "ฮ": 438,
      "ะ": 439,
      "ั": 440,
      "า": 441,
      "ิ": 442,
      "ี": 443,
      "ึ": 444,
      "เ": 445,
      "แ": 446,
      "ไ": 447,
      "็": 448,
      "่": 449,
      "้": 450,
      "๊": 451,
      "์": 452,
      "Ⴀ": 453,
      "Ⴂ": 454,
      "Ⴃ": 455,
      "Ⴈ": 456,
      "Ⴌ": 457,
      "Ⴕ": 458,
      "Ⴟ": 459,
      "ა": 460,
      "ბ": 461,
      "გ": 462,
      "დ": 463,
      "ე": 464,
      "ვ": 465,
      "ზ": 466,
      "თ": 467,
      "ი": 468,
      "კ": 469,
      "ლ": 470,
      "მ": 471,
      "ნ": 472,
      "ო": 473,
      "პ": 474,
      "ჟ": 475,
      "რ": 476,
      "ს": 477,
      "ტ": 478,
      "უ": 479,
      "ფ": 480,
      "ქ": 481,
      "ღ": 482,
      "ყ": 483,
      "შ": 484,
      "ჩ": 485,
      "ც": 486,
      "ძ": 487,
      "წ": 488,
      "ჭ": 489,
      "ხ": 490,
      "ჯ": 491,
      "ჰ": 492,
      "ჱ": 493,
      "ჲ": 494,
      "ჳ": 495,
      "ჴ": 496,
      "ჵ": 497,
      "ჶ": 498,
      "ჷ": 499,
      "ჸ": 500,
      "ჹ": 501,
      "ჺ": 502,
      "჻": 503,
      "ᵻ": 504,
      "ḍ": 505,
      "ḏ": 506,
      "Ḥ": 507,
      "ḥ": 508,
      "ḷ": 509,
      "ṃ": 510,
      "ṅ": 511,
      "ṇ": 512,
      "ṛ": 513,
      "ṣ": 514,
      "ṭ": 515,
      "ṯ": 516,
      "ạ": 517,
      "ả": 518,
      "ấ": 519,
      "ầ": 520,
      "ậ": 521,
      "ắ": 522,
      "ễ": 523,
      "ệ": 524,
      "ị": 525,
      "ỏ": 526,
      "ỗ": 527,
      "ộ": 528,
      "ớ": 529,
      "ứ": 530,
      "ử": 531,
      "ỳ": 532,
      "ỹ": 533,
      "ἀ": 534,
      "ἰ": 535,
      "ὀ": 536,
      "ὁ": 537,
      "ὑ": 538,
      "‐": 539,
      "–": 540,
      "—": 541,
      "―": 542,
      "‘": 543,
      "’": 544,
      "“": 545,
      "”": 546,
      "„": 547,
      "†": 548,
      "‡": 549,
      "•": 550,
      "′": 551,
      "⁄": 552,
      "₤": 553,
      "€": 554,
      "₹": 555,
      "→": 556,
      "−": 557,
      "≡": 558,
      "≤": 559,
      "☉": 560,
      "☫": 561,
      "♀": 562,
      "♭": 563,
      "♯": 564,
      "⚳": 565,
      "〈": 566,
      "〉": 567,
      "あ": 568,
      "い": 569,
      "う": 570,
      "お": 571,
      "か": 572,
      "が": 573,
      "き": 574,
      "ぎ": 575,
      "く": 576,
      "ぐ": 577,
      "け": 578,
      "こ": 579,
      "ご": 580,
      "さ": 581,
      "し": 582,
      "す": 583,
      "ず": 584,
      "ぜ": 585,
      "た": 586,
      "ち": 587,
      "っ": 588,
      "つ": 589,
      "と": 590,
      "な": 591,
      "に": 592,
      "の": 593,
      "は": 594,
      "ば": 595,
      "ひ": 596,
      "ふ": 597,
      "ほ": 598,
      "ま": 599,
      "み": 600,
      "め": 601,
      "も": 602,
      "ゃ": 603,
      "ゆ": 604,
      "ょ": 605,
      "り": 606,
      "る": 607,
      "れ": 608,
      "わ": 609,
      "を": 610,
      "ん": 611,
      "ァ": 612,
      "ア": 613,
      "ィ": 614,
      "イ": 615,
      "ゥ": 616,
      "ェ": 617,
      "エ": 618,
      "ォ": 619,
      "オ": 620,
      "カ": 621,
      "ガ": 622,
      "キ": 623,
      "ク": 624,
      "グ": 625,
      "ゲ": 626,
      "コ": 627,
      "サ": 628,
      "シ": 629,
      "ジ": 630,
      "ス": 631,
      "ズ": 632,
      "セ": 633,
      "ダ": 634,
      "チ": 635,
      "ッ": 636,
      "ツ": 637,
      "テ": 638,
      "デ": 639,
      "ト": 640,
      "ド": 641,
      "ナ": 642,
      "ニ": 643,
      "ネ": 644,
      "ノ": 645,
      "ハ": 646,
      "バ": 647,
      "フ": 648,
      "ブ": 649,
      "プ": 650,
      "ベ": 651,
      "マ": 652,
      "ミ": 653,
      "ム": 654,
      "モ": 655,
      "ャ": 656,
      "ュ": 657,
      "ョ": 658,
      "ラ": 659,
      "リ": 660,
      "ル": 661,
      "レ": 662,
      "ロ": 663,
      "ン": 664,
      "ヴ": 665,
      "・": 666,
      "ー": 667,
      "七": 668,
      "下": 669,
      "世": 670,
      "丙": 671,
      "主": 672,
      "乃": 673,
      "之": 674,
      "乙": 675,
      "九": 676,
      "二": 677,
      "云": 678,
      "付": 679,
      "作": 680,
      "侗": 681,
      "依": 682,
      "儚": 683,
      "光": 684,
      "其": 685,
      "円": 686,
      "再": 687,
      "出": 688,
      "判": 689,
      "前": 690,
      "剛": 691,
      "劇": 692,
      "劉": 693,
      "動": 694,
      "化": 695,
      "北": 696,
      "华": 697,
      "去": 698,
      "古": 699,
      "可": 700,
      "同": 701,
      "名": 702,
      "吳": 703,
      "周": 704,
      "命": 705,
      "和": 706,
      "善": 707,
      "四": 708,
      "國": 709,
      "園": 710,
      "坂": 711,
      "堤": 712,
      "場": 713,
      "夕": 714,
      "大": 715,
      "女": 716,
      "妙": 717,
      "子": 718,
      "孟": 719,
      "守": 720,
      "安": 721,
      "完": 722,
      "宗": 723,
      "宫": 724,
      "寺": 725,
      "小": 726,
      "少": 727,
      "尾": 728,
      "山": 729,
      "岳": 730,
      "川": 731,
      "州": 732,
      "巳": 733,
      "市": 734,
      "師": 735,
      "平": 736,
      "广": 737,
      "建": 738,
      "式": 739,
      "張": 740,
      "彩": 741,
      "彼": 742,
      "後": 743,
      "御": 744,
      "思": 745,
      "愛": 746,
      "憑": 747,
      "憶": 748,
      "懷": 749,
      "战": 750,
      "戦": 751,
      "拉": 752,
      "拳": 753,
      "揺": 754,
      "攻": 755,
      "政": 756,
      "方": 757,
      "日": 758,
      "旦": 759,
      "旭": 760,
      "明": 761,
      "星": 762,
      "春": 763,
      "景": 764,
      "曦": 765,
      "月": 766,
      "望": 767,
      "本": 768,
      "李": 769,
      "村": 770,
      "束": 771,
      "林": 772,
      "桜": 773,
      "梶": 774,
      "棘": 775,
      "椎": 776,
      "楚": 777,
      "橘": 778,
      "機": 779,
      "殻": 780,
      "水": 781,
      "汉": 782,
      "沙": 783,
      "泗": 784,
      "泣": 785,
      "洪": 786,
      "淹": 787,
      "清": 788,
      "湯": 789,
      "漢": 790,
      "澄": 791,
      "澤": 792,
      "火": 793,
      "灵": 794,
      "灼": 795,
      "焼": 796,
      "熱": 797,
      "狐": 798,
      "狸": 799,
      "玄": 800,
      "王": 801,
      "珂": 802,
      "球": 803,
      "理": 804,
      "琪": 805,
      "生": 806,
      "田": 807,
      "畢": 808,
      "皮": 809,
      "真": 810,
      "砲": 811,
      "礮": 812,
      "祈": 813,
      "神": 814,
      "秋": 815,
      "空": 816,
      "精": 817,
      "約": 818,
      "絵": 819,
      "織": 820,
      "翠": 821,
      "耕": 822,
      "肖": 823,
      "胡": 824,
      "膀": 825,
      "臂": 826,
      "良": 827,
      "花": 828,
      "芽": 829,
      "若": 830,
      "英": 831,
      "藥": 832,
      "蘄": 833,
      "蘇": 834,
      "裁": 835,
      "覺": 836,
      "观": 837,
      "記": 838,
      "誓": 839,
      "誡": 840,
      "謎": 841,
      "许": 842,
      "豪": 843,
      "費": 844,
      "赤": 845,
      "足": 846,
      "跡": 847,
      "転": 848,
      "辛": 849,
      "逆": 850,
      "遇": 851,
      "運": 852,
      "過": 853,
      "選": 854,
      "部": 855,
      "郭": 856,
      "都": 857,
      "里": 858,
      "野": 859,
      "金": 860,
      "銃": 861,
      "鋼": 862,
      "錄": 863,
      "鍵": 864,
      "鐵": 865,
      "钱": 866,
      "铁": 867,
      "防": 868,
      "阿": 869,
      "陈": 870,
      "陳": 871,
      "陽": 872,
      "隊": 873,
      "階": 874,
      "集": 875,
      "雪": 876,
      "雲": 877,
      "霖": 878,
      "霹": 879,
      "靂": 880,
      "顯": 881,
      "颜": 882,
      "马": 883,
      "高": 884,
      "龍": 885,
      "대": 886,
      "독": 887,
      "라": 888,
      "립": 889,
      "병": 890,
      "보": 891,
      "부": 892,
      "알": 893,
      "연": 894,
      "제": 895,
      "﻿": 896,
      "th": 897,
      "in": 898,
      "er": 899,
      "an": 900,
      "the": 901,
      "on": 902,
      "ed": 903,
      "re": 904,
      "at": 905,
      "or": 906,
      "en": 907,
      "st": 908,
      "al": 909,
      "ar": 910,
      "and": 911,
      "of": 912,
      "as": 913,
      "es": 914,
      "is": 915,
      "ing": 916,
      "it": 917,
      "to": 918,
      "ic": 919,
      "ou": 920,
      "ion": 921,
      "he": 922,
      "ro": 923,
      "le": 924,
      "ac": 925,
      "il": 926,
      "ent": 927,
      "am": 928,
      "se": 929,
      "ad": 930,
      "om": 931,
      "el": 932,
      "ch": 933,
      "ur": 934,
      "be": 935,
      "was": 936,
      "for": 937,
      "ly": 938,
      "The": 939,
      "ol": 940,
      "de": 941,
      "ir": 942,
      "iv": 943,
      "im": 944,
      "-@": 945,
      "@-@": 946,
      "ig": 947,
      "ow": 948,
      "un": 949,
      "wh": 950,
      "ter": 951,
      "ith": 952,
      "ay": 953,
      "ation": 954,
      "ce": 955,
      "con": 956,
      "ct": 957,
      "ver": 958,
      "ag": 959,
      "with": 960,
      "us": 961,
      "id": 962,
      "by": 963,
      "that": 964,
      "ul": 965,
      "ot": 966,
      "19": 967,
      "em": 968,
      "ers": 969,
      "ap": 970,
      "et": 971,
      "ere": 972,
      "res": 973,
      "ut": 974,
      "op": 975,
      "av": 976,
      "ist": 977,
      "um": 978,
      "com": 979,
      "ain": 980,
      "rom": 981,
      "ab": 982,
      "00": 983,
      "pl": 984,
      "oun": 985,
      "tr": 986,
      "all": 987,
      "his": 988,
      "are": 989,
      "est": 990,
      "mo": 991,
      "su": 992,
      "pro": 993,
      "In": 994,
      "pe": 995,
      "from": 996,
      "ies": 997,
      "sh": 998,
      "ex": 999,
      "cl": 1000,
      "if": 1001,
      "art": 1002,
      "ther": 1003,
      "os": 1004,
      "ri": 1005,
      "ne": 1006,
      "ill": 1007,
      "oc": 1008,
      "od": 1009,
      "ak": 1010,
      "ate": 1011,
      "ard": 1012,
      "ast": 1013,
      "te": 1014,
      "igh": 1015,
      "were": 1016,
      "ong": 1017,
      "ich": 1018,
      "ish": 1019,
      "ant": 1020,
      "ld": 1021,
      "ity": 1022,
      "ber": 1023,
      "ated": 1024,
      "ort": 1025,
      "gh": 1026,
      "per": 1027,
      "ess": 1028,
      "ame": 1029,
      "man": 1030,
      "als": 1031,
      "ear": 1032,
      "ive": 1033,
      "qu": 1034,
      "end": 1035,
      "ud": 1036,
      "ack": 1037,
      "one": 1038,
      "out": 1039,
      "ie": 1040,
      "tw": 1041,
      "ment": 1042,
      "over": 1043,
      "ip": 1044,
      "our": 1045,
      "ough": 1046,
      "gr": 1047,
      "had": 1048,
      "af": 1049,
      "ord": 1050,
      "ian": 1051,
      "which": 1052,
      "ass": 1053,
      "ound": 1054,
      "Ch": 1055,
      "pt": 1056,
      "ge": 1057,
      "rit": 1058,
      "ally": 1059,
      "str": 1060,
      "but": 1061,
      "ia": 1062,
      "not": 1063,
      "ine": 1064,
      "ell": 1065,
      "its": 1066,
      "act": 1067,
      "200": 1068,
      "du": 1069,
      "pr": 1070,
      "ave": 1071,
      "St": 1072,
      "fir": 1073,
      "ary": 1074,
      "own": 1075,
      "20": 1076,
      "fe": 1077,
      "ight": 1078,
      "bl": 1079,
      "land": 1080,
      "ous": 1081,
      "her": 1082,
      "der": 1083,
      "ore": 1084,
      "comp": 1085,
      "port": 1086,
      "po": 1087,
      "ical": 1088,
      "first": 1089,
      "ach": 1090,
      "ide": 1091,
      "up": 1092,
      "ction": 1093,
      "wor": 1094,
      "ial": 1095,
      "age": 1096,
      "has": 1097,
      "att": 1098,
      "ign": 1099,
      "their": 1100,
      "bo": 1101,
      "ev": 1102,
      "tim": 1103,
      "sc": 1104,
      "aw": 1105,
      "also": 1106,
      "ater": 1107,
      "mer": 1108,
      "og": 1109,
      "ition": 1110,
      "ure": 1111,
      "ser": 1112,
      "int": 1113,
      "ire": 1114,
      "ould": 1115,
      "have": 1116,
      "18": 1117,
      "au": 1118,
      "ve": 1119,
      "He": 1120,
      "rec": 1121,
      "part": 1122,
      "ke": 1123,
      "ree": 1124,
      "ran": 1125,
      "other": 1126,
      "play": 1127,
      "Al": 1128,
      "been": 1129,
      "ok": 1130,
      "cont": 1131,
      "who": 1132,
      "pres": 1133,
      "ome": 1134,
      "low": 1135,
      "ence": 1136,
      "It": 1137,
      ".@": 1138,
      "@.@": 1139,
      "two": 1140,
      "sp": 1141,
      "ory": 1142,
      "201": 1143,
      "iz": 1144,
      "ile": 1145,
      "des": 1146,
      "uring": 1147,
      "year": 1148,
      "off": 1149,
      "cent": 1150,
      "dis": 1151,
      "form": 1152,
      "Th": 1153,
      "lo": 1154,
      "gu": 1155,
      "ite": 1156,
      "me": 1157,
      "ult": 1158,
      "ans": 1159,
      "after": 1160,
      "this": 1161,
      "ind": 1162,
      "ue": 1163,
      "br": 1164,
      "ren": 1165,
      "ations": 1166,
      "li": 1167,
      "incl": 1168,
      "An": 1169,
      "ade": 1170,
      "cre": 1171,
      "pos": 1172,
      "Un": 1173,
      "we": 1174,
      "urn": 1175,
      "they": 1176,
      ",@": 1177,
      "@,@": 1178,
      "ace": 1179,
      "ely": 1180,
      "ved": 1181,
      "ep": 1182,
      "ice": 1183,
      "mon": 1184,
      "ark": 1185,
      "work": 1186,
      "ib": 1187,
      "ath": 1188,
      "ric": 1189,
      "spe": 1190,
      "ship": 1191,
      "ra": 1192,
      "able": 1193,
      "ever": 1194,
      "old": 1195,
      "pre": 1196,
      "amp": 1197,
      "no": 1198,
      "co": 1199,
      "cond": 1200,
      "fer": 1201,
      "sion": 1202,
      "time": 1203,
      "ph": 1204,
      "ty": 1205,
      "dr": 1206,
      "ces": 1207,
      "vel": 1208,
      "into": 1209,
      "ited": 1210,
      "inter": 1211,
      "cted": 1212,
      "ced": 1213,
      "most": 1214,
      "ates": 1215,
      "Ar": 1216,
      "air": 1217,
      "more": 1218,
      "ied": 1219,
      "used": 1220,
      "any": 1221,
      "ased": 1222,
      "fin": 1223,
      "ts": 1224,
      "ason": 1225,
      "ings": 1226,
      "ents": 1227,
      "ted": 1228,
      "ens": 1229,
      "ew": 1230,
      "way": 1231,
      "main": 1232,
      "ann": 1233,
      "fl": 1234,
      "ance": 1235,
      "includ": 1236,
      "ase": 1237,
      "kn": 1238,
      "ood": 1239,
      "red": 1240,
      "she": 1241,
      "fore": 1242,
      "row": 1243,
      "bec": 1244,
      "ild": 1245,
      "him": 1246,
      "gan": 1247,
      "ious": 1248,
      "arch": 1249,
      "ions": 1250,
      "ail": 1251,
      "En": 1252,
      "ob": 1253,
      "ubl": 1254,
      "199": 1255,
      "would": 1256,
      "ake": 1257,
      "ix": 1258,
      "rough": 1259,
      "Se": 1260,
      "new": 1261,
      "reg": 1262,
      "sy": 1263,
      "though": 1264,
      "under": 1265,
      "bu": 1266,
      "col": 1267,
      "ilm": 1268,
      "ry": 1269,
      "Au": 1270,
      "cess": 1271,
      "rel": 1272,
      "min": 1273,
      "ru": 1274,
      "Re": 1275,
      "ang": 1276,
      "when": 1277,
      "comm": 1278,
      "ors": 1279,
      "ten": 1280,
      "son": 1281,
      "ose": 1282,
      "ick": 1283,
      "can": 1284,
      "een": 1285,
      "les": 1286,
      "outh": 1287,
      "ember": 1288,
      "ern": 1289,
      "only": 1290,
      "during": 1291,
      "gen": 1292,
      "ward": 1293,
      "nor": 1294,
      "lar": 1295,
      "oy": 1296,
      "day": 1297,
      "ational": 1298,
      "them": 1299,
      "produ": 1300,
      "As": 1301,
      "ular": 1302,
      "season": 1303,
      "ret": 1304,
      "than": 1305,
      "ered": 1306,
      "stru": 1307,
      "ollow": 1308,
      "ins": 1309,
      "tween": 1310,
      "Com": 1311,
      "three": 1312,
      "between": 1313,
      "10": 1314,
      "ov": 1315,
      "song": 1316,
      "game": 1317,
      "vis": 1318,
      "through": 1319,
      "film": 1320,
      "On": 1321,
      "spec": 1322,
      "Af": 1323,
      "ict": 1324,
      "writ": 1325,
      "record": 1326,
      "ful": 1327,
      "some": 1328,
      "so": 1329,
      "sel": 1330,
      "io": 1331,
      "ury": 1332,
      "num": 1333,
      "about": 1334,
      "led": 1335,
      "meric": 1336,
      "Americ": 1337,
      "while": 1338,
      "Le": 1339,
      "coun": 1340,
      "Wh": 1341,
      "set": 1342,
      "again": 1343,
      "later": 1344,
      "rele": 1345,
      "ished": 1346,
      "New": 1347,
      "char": 1348,
      "cons": 1349,
      "ating": 1350,
      "sub": 1351,
      "where": 1352,
      "ton": 1353,
      "ific": 1354,
      "ma": 1355,
      "ck": 1356,
      "ele": 1357,
      "ames": 1358,
      "loc": 1359,
      "my": 1360,
      "De": 1361,
      "ext": 1362,
      "high": 1363,
      "Jo": 1364,
      "tain": 1365,
      "iel": 1366,
      "sing": 1367,
      "reat": 1368,
      "iew": 1369,
      "made": 1370,
      "000": 1371,
      "ron": 1372,
      "second": 1373,
      "such": 1374,
      "rop": 1375,
      "This": 1376,
      "do": 1377,
      "bum": 1378,
      "ived": 1379,
      "years": 1380,
      "Eng": 1381,
      "publ": 1382,
      "ics": 1383,
      "hel": 1384,
      "appe": 1385,
      "iver": 1386,
      "then": 1387,
      "16": 1388,
      "follow": 1389,
      "med": 1390,
      "ust": 1391,
      "12": 1392,
      "known": 1393,
      "well": 1394,
      "cap": 1395,
      "ife": 1396,
      "four": 1397,
      "ily": 1398,
      "urch": 1399,
      "lan": 1400,
      "cur": 1401,
      "ual": 1402,
      "At": 1403,
      "ars": 1404,
      "ters": 1405,
      "found": 1406,
      "inn": 1407,
      "je": 1408,
      "Nor": 1409,
      "ince": 1410,
      "17": 1411,
      "mus": 1412,
      "15": 1413,
      "ef": 1414,
      "par": 1415,
      "cri": 1416,
      "back": 1417,
      "cept": 1418,
      "198": 1419,
      "..": 1420,
      "aid": 1421,
      "Sh": 1422,
      "go": 1423,
      "sur": 1424,
      "view": 1425,
      "before": 1426,
      "use": 1427,
      "many": 1428,
      "album": 1429,
      "orn": 1430,
      "Con": 1431,
      "olog": 1432,
      "ub": 1433,
      "ock": 1434,
      "pop": 1435,
      "being": 1436,
      "cer": 1437,
      "call": 1438,
      "hn": 1439,
      "ird": 1440,
      "United": 1441,
      "there": 1442,
      "owever": 1443,
      "ities": 1444,
      "series": 1445,
      "number": 1446,
      "ros": 1447,
      "including": 1448,
      "cr": 1449,
      "unt": 1450,
      "ield": 1451,
      "Brit": 1452,
      "point": 1453,
      "ines": 1454,
      "let": 1455,
      "sever": 1456,
      "add": 1457,
      "II": 1458,
      "sup": 1459,
      "dire": 1460,
      "down": 1461,
      "ident": 1462,
      "ball": 1463,
      "stud": 1464,
      "eng": 1465,
      "ale": 1466,
      "igin": 1467,
      "197": 1468,
      "iet": 1469,
      "30": 1470,
      "uary": 1471,
      "ise": 1472,
      "epis": 1473,
      "atch": 1474,
      "ek": 1475,
      "cho": 1476,
      "became": 1477,
      "John": 1478,
      "ven": 1479,
      "ond": 1480,
      "Ro": 1481,
      "long": 1482,
      "century": 1483,
      "ause": 1484,
      "cle": 1485,
      "196": 1486,
      "Mar": 1487,
      "feat": 1488,
      "both": 1489,
      "ode": 1490,
      "car": 1491,
      "ped": 1492,
      "hy": 1493,
      "hist": 1494,
      "line": 1495,
      "trans": 1496,
      "against": 1497,
      "team": 1498,
      "ures": 1499,
      "velop": 1500,
      "descri": 1501,
      "ost": 1502,
      "ative": 1503,
      "Be": 1504,
      "may": 1505,
      "Wor": 1506,
      "uch": 1507,
      "ivers": 1508,
      "serv": 1509,
      "appear": 1510,
      "194": 1511,
      "run": 1512,
      "oup": 1513,
      "After": 1514,
      "suc": 1515,
      "road": 1516,
      "ci": 1517,
      "inv": 1518,
      "ley": 1519,
      "lead": 1520,
      "bed": 1521,
      "ft": 1522,
      "mill": 1523,
      "west": 1524,
      "origin": 1525,
      "rol": 1526,
      "develop": 1527,
      "ah": 1528,
      "bel": 1529,
      "pol": 1530,
      "side": 1531,
      "sign": 1532,
      "ste": 1533,
      "sm": 1534,
      "head": 1535,
      "several": 1536,
      "dec": 1537,
      "une": 1538,
      "mar": 1539,
      "Is": 1540,
      "peri": 1541,
      "tow": 1542,
      "American": 1543,
      "13": 1544,
      "present": 1545,
      "war": 1546,
      "eral": 1547,
      "oper": 1548,
      "dif": 1549,
      "contin": 1550,
      "prov": 1551,
      "met": 1552,
      "charac": 1553,
      "Gr": 1554,
      "orm": 1555,
      "cover": 1556,
      "War": 1557,
      "ized": 1558,
      "May": 1559,
      "ments": 1560,
      "ese": 1561,
      "show": 1562,
      "near": 1563,
      "erson": 1564,
      "dam": 1565,
      "early": 1566,
      "Br": 1567,
      "ium": 1568,
      "ended": 1569,
      "ress": 1570,
      "ject": 1571,
      "ised": 1572,
      "began": 1573,
      "city": 1574,
      "nam": 1575,
      "ement": 1576,
      "ink": 1577,
      "iss": 1578,
      "50": 1579,
      "fam": 1580,
      "now": 1581,
      "remain": 1582,
      "Car": 1583,
      "She": 1584,
      "cord": 1585,
      "grap": 1586,
      "pass": 1587,
      "episode": 1588,
      "stem": 1589,
      "az": 1590,
      "ually": 1591,
      "cy": 1592,
      "14": 1593,
      "rest": 1594,
      "por": 1595,
      "ople": 1596,
      "like": 1597,
      "dep": 1598,
      "rece": 1599,
      "British": 1600,
      "ane": 1601,
      "dist": 1602,
      "along": 1603,
      "ash": 1604,
      "mil": 1605,
      "crit": 1606,
      "success": 1607,
      "ble": 1608,
      "ision": 1609,
      "design": 1610,
      "var": 1611,
      "leg": 1612,
      "try": 1613,
      "area": 1614,
      "thern": 1615,
      "ms": 1616,
      "gust": 1617,
      "released": 1618,
      "ca": 1619,
      "ists": 1620,
      "overn": 1621,
      "field": 1622,
      "gest": 1623,
      "enn": 1624,
      "called": 1625,
      "km": 1626,
      "ony": 1627,
      "Eu": 1628,
      "these": 1629,
      "ons": 1630,
      "ier": 1631,
      "until": 1632,
      "Ger": 1633,
      "aking": 1634,
      "jor": 1635,
      "life": 1636,
      "could": 1637,
      "open": 1638,
      "less": 1639,
      "self": 1640,
      "ales": 1641,
      "oot": 1642,
      "They": 1643,
      "men": 1644,
      "World": 1645,
      "start": 1646,
      "plac": 1647,
      "Col": 1648,
      "did": 1649,
      "ouse": 1650,
      "return": 1651,
      "east": 1652,
      "prev": 1653,
      "ross": 1654,
      "million": 1655,
      "music": 1656,
      "Ju": 1657,
      "ling": 1658,
      "ower": 1659,
      "Chr": 1660,
      "fect": 1661,
      "national": 1662,
      "come": 1663,
      "August": 1664,
      "bod": 1665,
      "chool": 1666,
      "arr": 1667,
      "Pl": 1668,
      "same": 1669,
      "people": 1670,
      "ural": 1671,
      "read": 1672,
      "US": 1673,
      "itt": 1674,
      "States": 1675,
      "north": 1676,
      "book": 1677,
      "small": 1678,
      "ina": 1679,
      "For": 1680,
      "ather": 1681,
      "che": 1682,
      "Bl": 1683,
      "dom": 1684,
      "sim": 1685,
      "North": 1686,
      "ible": 1687,
      "mark": 1688,
      "oth": 1689,
      "six": 1690,
      "top": 1691,
      "each": 1692,
      "ank": 1693,
      "ided": 1694,
      "0s": 1695,
      "species": 1696,
      "said": 1697,
      "Pro": 1698,
      "Fe": 1699,
      "lish": 1700,
      "formed": 1701,
      "tit": 1702,
      "ague": 1703,
      "because": 1704,
      "large": 1705,
      "town": 1706,
      "since": 1707,
      "Sept": 1708,
      "stral": 1709,
      "state": 1710,
      "ured": 1711,
      "ham": 1712,
      "ives": 1713,
      "comple": 1714,
      "name": 1715,
      "ple": 1716,
      "ilt": 1717,
      "will": 1718,
      "ism": 1719,
      "group": 1720,
      "Cl": 1721,
      "continu": 1722,
      "oman": 1723,
      "consid": 1724,
      "However": 1725,
      "care": 1726,
      "September": 1727,
      "around": 1728,
      "offic": 1729,
      "mem": 1730,
      "June": 1731,
      "class": 1732,
      "ground": 1733,
      "ets": 1734,
      "five": 1735,
      "result": 1736,
      "11": 1737,
      "played": 1738,
      "bers": 1739,
      "ork": 1740,
      "fun": 1741,
      "Fran": 1742,
      "following": 1743,
      "won": 1744,
      "govern": 1745,
      "ys": 1746,
      "build": 1747,
      "ctor": 1748,
      "Oc": 1749,
      "inc": 1750,
      "ission": 1751,
      "list": 1752,
      "requ": 1753,
      "stand": 1754,
      "fic": 1755,
      "ude": 1756,
      "ored": 1757,
      "ired": 1758,
      "aim": 1759,
      "del": 1760,
      "partic": 1761,
      "cour": 1762,
      "ages": 1763,
      "light": 1764,
      "child": 1765,
      "week": 1766,
      "25": 1767,
      "bre": 1768,
      "star": 1769,
      "Jan": 1770,
      "contr": 1771,
      "attack": 1772,
      "Austral": 1773,
      "constru": 1774,
      "character": 1775,
      "ask": 1776,
      "Ind": 1777,
      "ional": 1778,
      "what": 1779,
      "cut": 1780,
      "cast": 1781,
      "ants": 1782,
      "system": 1783,
      "South": 1784,
      "atter": 1785,
      "tal": 1786,
      "major": 1787,
      "Coun": 1788,
      "York": 1789,
      "organ": 1790,
      "position": 1791,
      "ime": 1792,
      "received": 1793,
      "last": 1794,
      "south": 1795,
      "aving": 1796,
      "cording": 1797,
      "ae": 1798,
      "track": 1799,
      "support": 1800,
      "iam": 1801,
      "public": 1802,
      "Gu": 1803,
      "Pr": 1804,
      "Me": 1805,
      "West": 1806,
      "poss": 1807,
      "water": 1808,
      "ately": 1809,
      "very": 1810,
      "Can": 1811,
      "prom": 1812,
      "England": 1813,
      "ards": 1814,
      "All": 1815,
      "report": 1816,
      "July": 1817,
      "ility": 1818,
      "tober": 1819,
      "195": 1820,
      "October": 1821,
      "ined": 1822,
      "ropical": 1823,
      "pit": 1824,
      "named": 1825,
      "moved": 1826,
      "Her": 1827,
      "King": 1828,
      "Nov": 1829,
      "place": 1830,
      "allow": 1831,
      "ivision": 1832,
      "aged": 1833,
      "Ac": 1834,
      "aur": 1835,
      "ves": 1836,
      "ships": 1837,
      "described": 1838,
      "incre": 1839,
      "built": 1840,
      "Christ": 1841,
      "death": 1842,
      "app": 1843,
      "Euro": 1844,
      "ai": 1845,
      "iversity": 1846,
      "family": 1847,
      "resp": 1848,
      "ained": 1849,
      "took": 1850,
      "final": 1851,
      "def": 1852,
      "ively": 1853,
      "even": 1854,
      "ler": 1855,
      "ides": 1856,
      "wards": 1857,
      "iving": 1858,
      "appro": 1859,
      "camp": 1860,
      "late": 1861,
      "ting": 1862,
      "ulation": 1863,
      "world": 1864,
      "Apr": 1865,
      "reach": 1866,
      "April": 1867,
      "Mon": 1868,
      "version": 1869,
      "soc": 1870,
      "hand": 1871,
      "Dy": 1872,
      "band": 1873,
      "Ge": 1874,
      "ster": 1875,
      "ically": 1876,
      "ats": 1877,
      "Tr": 1878,
      "adv": 1879,
      "empt": 1880,
      "ute": 1881,
      "Man": 1882,
      "hum": 1883,
      "home": 1884,
      "ideo": 1885,
      "dest": 1886,
      "short": 1887,
      "cas": 1888,
      "much": 1889,
      "person": 1890,
      "Sc": 1891,
      "ops": 1892,
      "roy": 1893,
      "due": 1894,
      "just": 1895,
      "January": 1896,
      "March": 1897,
      "gun": 1898,
      "Par": 1899,
      "que": 1900,
      "aft": 1901,
      "gener": 1902,
      "oss": 1903,
      "During": 1904,
      "ral": 1905,
      "prote": 1906,
      "Europe": 1907,
      "based": 1908,
      "power": 1909,
      "event": 1910,
      "fur": 1911,
      "ll": 1912,
      "ature": 1913,
      "akes": 1914,
      "val": 1915,
      "order": 1916,
      "rown": 1917,
      "German": 1918,
      "November": 1919,
      "estab": 1920,
      "2010": 1921,
      "sequ": 1922,
      "And": 1923,
      "ax": 1924,
      "king": 1925,
      "His": 1926,
      "kill": 1927,
      "hal": 1928,
      "ified": 1929,
      "ense": 1930,
      "differ": 1931,
      "Sp": 1932,
      "batt": 1933,
      "chan": 1934,
      "avy": 1935,
      "control": 1936,
      "turn": 1937,
      "...": 1938,
      "rem": 1939,
      "26": 1940,
      "get": 1941,
      "sent": 1942,
      "included": 1943,
      "24": 1944,
      "ently": 1945,
      "ery": 1946,
      "Ste": 1947,
      "within": 1948,
      "gram": 1949,
      "ians": 1950,
      "flu": 1951,
      "government": 1952,
      "Bo": 1953,
      "fac": 1954,
      "sol": 1955,
      "2009": 1956,
      "National": 1957,
      "la": 1958,
      "church": 1959,
      "common": 1960,
      "single": 1961,
      "mb": 1962,
      "mber": 1963,
      "another": 1964,
      "arm": 1965,
      "expl": 1966,
      "Or": 1967,
      "stit": 1968,
      "2008": 1969,
      "rench": 1970,
      "school": 1971,
      "ains": 1972,
      "There": 1973,
      "gy": 1974,
      "storm": 1975,
      "Bar": 1976,
      "els": 1977,
      "claim": 1978,
      "Dece": 1979,
      "Mc": 1980,
      "December": 1981,
      "right": 1982,
      "those": 1983,
      "previous": 1984,
      "21": 1985,
      "third": 1986,
      "left": 1987,
      "193": 1988,
      "pect": 1989,
      "period": 1990,
      "Ad": 1991,
      "Comm": 1992,
      "Ph": 1993,
      "ially": 1994,
      "jo": 1995,
      "ush": 1996,
      "local": 1997,
      "By": 1998,
      "fall": 1999,
      "action": 2000,
      "28": 2001,
      "Dylan": 2002,
      "using": 2003,
      "River": 2004,
      "colle": 2005,
      "original": 2006,
      "although": 2007,
      "trad": 2008,
      "ged": 2009,
      "oute": 2010,
      "history": 2011,
      "2007": 2012,
      "ences": 2013,
      "ament": 2014,
      "ched": 2015,
      "State": 2016,
      "ampion": 2017,
      "bro": 2018,
      "often": 2019,
      "best": 2020,
      "23": 2021,
      "ilar": 2022,
      "Te": 2023,
      "match": 2024,
      "test": 2025,
      "iven": 2026,
      "attempt": 2027,
      "City": 2028,
      "video": 2029,
      "Gen": 2030,
      "issu": 2031,
      "rote": 2032,
      "career": 2033,
      "ought": 2034,
      "We": 2035,
      "mi": 2036,
      "press": 2037,
      "Ear": 2038,
      "ival": 2039,
      "No": 2040,
      "ox": 2041,
      "belie": 2042,
      "gre": 2043,
      "mp": 2044,
      "ali": 2045,
      "published": 2046,
      "lim": 2047,
      "great": 2048,
      "mov": 2049,
      "wrote": 2050,
      "Inter": 2051,
      "ning": 2052,
      "site": 2053,
      "ref": 2054,
      "role": 2055,
      "ution": 2056,
      "make": 2057,
      "itary": 2058,
      "vision": 2059,
      "When": 2060,
      "refer": 2061,
      "company": 2062,
      "2011": 2063,
      "production": 2064,
      "22": 2065,
      "ger": 2066,
      "commun": 2067,
      "games": 2068,
      "still": 2069,
      "forman": 2070,
      "former": 2071,
      "sug": 2072,
      "command": 2073,
      "Ha": 2074,
      "fact": 2075,
      "quar": 2076,
      "inning": 2077,
      "French": 2078,
      "mid": 2079,
      "Co": 2080,
      "cell": 2081,
      "Mus": 2082,
      "idge": 2083,
      "English": 2084,
      "story": 2085,
      "100": 2086,
      "lor": 2087,
      "tem": 2088,
      "few": 2089,
      "held": 2090,
      "graph": 2091,
      "came": 2092,
      "put": 2093,
      "ison": 2094,
      "ception": 2095,
      "placed": 2096,
      "iter": 2097,
      "fr": 2098,
      "house": 2099,
      "ik": 2100,
      "urric": 2101,
      "import": 2102,
      "fri": 2103,
      "sk": 2104,
      "effect": 2105,
      "ness": 2106,
      "27": 2107,
      "bar": 2108,
      "den": 2109,
      "stri": 2110,
      "half": 2111,
      "Pe": 2112,
      "Per": 2113,
      "Ser": 2114,
      "cult": 2115,
      "round": 2116,
      "review": 2117,
      "considered": 2118,
      "bert": 2119,
      "addition": 2120,
      "Char": 2121,
      "prof": 2122,
      "written": 2123,
      "One": 2124,
      "sou": 2125,
      "white": 2126,
      "2006": 2127,
      "auth": 2128,
      "body": 2129,
      "Old": 2130,
      "mag": 2131,
      "ensive": 2132,
      "ove": 2133,
      "sold": 2134,
      "ator": 2135,
      "Will": 2136,
      "clear": 2137,
      "month": 2138,
      "player": 2139,
      "title": 2140,
      "continued": 2141,
      "ends": 2142,
      "augh": 2143,
      "iation": 2144,
      "yle": 2145,
      "wood": 2146,
      "Canad": 2147,
      "beg": 2148,
      "ology": 2149,
      "club": 2150,
      "recorded": 2151,
      "level": 2152,
      "performan": 2153,
      "na": 2154,
      "indu": 2155,
      "University": 2156,
      "League": 2157,
      "thing": 2158,
      "Geor": 2159,
      "suggest": 2160,
      "Sim": 2161,
      "draw": 2162,
      "init": 2163,
      "say": 2164,
      "real": 2165,
      "iment": 2166,
      "struct": 2167,
      "different": 2168,
      "Division": 2169,
      "eder": 2170,
      "ending": 2171,
      "Roman": 2172,
      "Tw": 2173,
      "bird": 2174,
      "pen": 2175,
      "wind": 2176,
      "aken": 2177,
      "aster": 2178,
      "2012": 2179,
      "produced": 2180,
      "Port": 2181,
      "become": 2182,
      "popular": 2183,
      "foot": 2184,
      "Church": 2185,
      "With": 2186,
      "ug": 2187,
      "seven": 2188,
      "include": 2189,
      "polit": 2190,
      "Park": 2191,
      "ories": 2192,
      "ford": 2193,
      "times": 2194,
      "served": 2195,
      "iety": 2196,
      "ama": 2197,
      "search": 2198,
      "vol": 2199,
      "moder": 2200,
      "Afric": 2201,
      "Ire": 2202,
      "next": 2203,
      "aining": 2204,
      "Although": 2205,
      "ize": 2206,
      "similar": 2207,
      "urricane": 2208,
      "apan": 2209,
      "every": 2210,
      "Ireland": 2211,
      "win": 2212,
      "ittle": 2213,
      "take": 2214,
      "tropical": 2215,
      "posed": 2216,
      "El": 2217,
      "ibut": 2218,
      "histor": 2219,
      "ones": 2220,
      "among": 2221,
      "chang": 2222,
      "children": 2223,
      "Japan": 2224,
      "novel": 2225,
      "release": 2226,
      "cor": 2227,
      "ico": 2228,
      "ried": 2229,
      "compet": 2230,
      "ctions": 2231,
      "particular": 2232,
      "Des": 2233,
      "ior": 2234,
      "ister": 2235,
      "fort": 2236,
      "imes": 2237,
      "sl": 2238,
      "you": 2239,
      "ices": 2240,
      "population": 2241,
      "Batt": 2242,
      "burn": 2243,
      "ges": 2244,
      "stat": 2245,
      "ull": 2246,
      "sure": 2247,
      "find": 2248,
      "ner": 2249,
      "ital": 2250,
      "program": 2251,
      "craft": 2252,
      "scri": 2253,
      "cial": 2254,
      "ailed": 2255,
      "Pal": 2256,
      "however": 2257,
      "rad": 2258,
      "total": 2259,
      "Ma": 2260,
      "gl": 2261,
      "occur": 2262,
      "construction": 2263,
      "Ex": 2264,
      "enter": 2265,
      "without": 2266,
      "strong": 2267,
      "itions": 2268,
      "days": 2269,
      "tour": 2270,
      "chn": 2271,
      "bruary": 2272,
      "February": 2273,
      "East": 2274,
      "bur": 2275,
      "forces": 2276,
      "antic": 2277,
      "post": 2278,
      "lost": 2279,
      "Ne": 2280,
      "ient": 2281,
      "net": 2282,
      "xim": 2283,
      "rent": 2284,
      "stead": 2285,
      "29": 2286,
      "Pol": 2287,
      "omen": 2288,
      "force": 2289,
      "close": 2290,
      "songs": 2291,
      "members": 2292,
      "bas": 2293,
      "ks": 2294,
      "omin": 2295,
      "pression": 2296,
      "ption": 2297,
      "vo": 2298,
      "ising": 2299,
      "190": 2300,
      "pri": 2301,
      "acy": 2302,
      "military": 2303,
      "further": 2304,
      "how": 2305,
      "Road": 2306,
      "40": 2307,
      "BC": 2308,
      "log": 2309,
      "stre": 2310,
      "see": 2311,
      "ploy": 2312,
      "oung": 2313,
      "country": 2314,
      "According": 2315,
      "ene": 2316,
      "successful": 2317,
      "given": 2318,
      "reek": 2319,
      "Reg": 2320,
      "signific": 2321,
      "General": 2322,
      "having": 2323,
      "influ": 2324,
      "island": 2325,
      "reported": 2326,
      "Dav": 2327,
      "Ed": 2328,
      "America": 2329,
      "developed": 2330,
      "exp": 2331,
      "typ": 2332,
      "invol": 2333,
      "Mo": 2334,
      "face": 2335,
      "hold": 2336,
      "sit": 2337,
      "vi": 2338,
      "represent": 2339,
      "ably": 2340,
      "bor": 2341,
      "born": 2342,
      "fire": 2343,
      "father": 2344,
      "pite": 2345,
      "oms": 2346,
      "nu": 2347,
      "vert": 2348,
      "key": 2349,
      "author": 2350,
      "Ev": 2351,
      "Miss": 2352,
      "ument": 2353,
      "plan": 2354,
      "activ": 2355,
      "depend": 2356,
      "To": 2357,
      "omet": 2358,
      "aver": 2359,
      "died": 2360,
      "ps": 2361,
      "elt": 2362,
      "Hist": 2363,
      "flo": 2364,
      "uc": 2365,
      "tele": 2366,
      "Atl": 2367,
      "Li": 2368,
      "Sy": 2369,
      "fan": 2370,
      "lab": 2371,
      "grad": 2372,
      "range": 2373,
      "direct": 2374,
      "di": 2375,
      "mm": 2376,
      "These": 2377,
      "building": 2378,
      "Air": 2379,
      "gar": 2380,
      "lished": 2381,
      "iness": 2382,
      "amb": 2383,
      "60": 2384,
      "night": 2385,
      "word": 2386,
      "ared": 2387,
      "ways": 2388,
      "Scot": 2389,
      "change": 2390,
      "da": 2391,
      "decl": 2392,
      "project": 2393,
      "Black": 2394,
      "away": 2395,
      "Mich": 2396,
      "ned": 2397,
      "pur": 2398,
      "sett": 2399,
      "established": 2400,
      "Su": 2401,
      "aul": 2402,
      "tro": 2403,
      "ither": 2404,
      "works": 2405,
      "human": 2406,
      "modern": 2407,
      "div": 2408,
      "never": 2409,
      "Comp": 2410,
      "William": 2411,
      "tar": 2412,
      "ances": 2413,
      "itar": 2414,
      "County": 2415,
      "hip": 2416,
      "compos": 2417,
      "2013": 2418,
      "ological": 2419,
      "Feder": 2420,
      "High": 2421,
      "equ": 2422,
      "aint": 2423,
      "board": 2424,
      "intro": 2425,
      "capt": 2426,
      "Wil": 2427,
      "bus": 2428,
      "fem": 2429,
      "comb": 2430,
      "returned": 2431,
      "important": 2432,
      "cus": 2433,
      "destroy": 2434,
      "Song": 2435,
      "ope": 2436,
      "manag": 2437,
      "miles": 2438,
      "significant": 2439,
      "Lond": 2440,
      "gave": 2441,
      "went": 2442,
      "seen": 2443,
      "ivil": 2444,
      "critic": 2445,
      "ountain": 2446,
      "should": 2447,
      "ours": 2448,
      "London": 2449,
      "Ber": 2450,
      "making": 2451,
      "atic": 2452,
      "beh": 2453,
      "black": 2454,
      "across": 2455,
      "earli": 2456,
      "ael": 2457,
      "law": 2458,
      "rap": 2459,
      "vict": 2460,
      "189": 2461,
      "sum": 2462,
      "coming": 2463,
      "feet": 2464,
      "announ": 2465,
      "Australia": 2466,
      "adm": 2467,
      "dem": 2468,
      "ief": 2469,
      "coast": 2470,
      "full": 2471,
      "introdu": 2472,
      "Cor": 2473,
      "Roy": 2474,
      "ey": 2475,
      "nd": 2476,
      "stated": 2477,
      "ney": 2478,
      "covered": 2479,
      "Rich": 2480,
      "rul": 2481,
      "aves": 2482,
      "trav": 2483,
      "sex": 2484,
      "throughout": 2485,
      "ront": 2486,
      "yard": 2487,
      "2005": 2488,
      "ogn": 2489,
      "ization": 2490,
      "chart": 2491,
      "Wal": 2492,
      "ff": 2493,
      "areas": 2494,
      "mother": 2495,
      "Champion": 2496,
      "ublic": 2497,
      "stars": 2498,
      "alth": 2499,
      "aren": 2500,
      "While": 2501,
      "various": 2502,
      "mass": 2503,
      "idence": 2504,
      "events": 2505,
      "nal": 2506,
      "anim": 2507,
      "style": 2508,
      "uses": 2509,
      "look": 2510,
      "relig": 2511,
      "Cr": 2512,
      "agre": 2513,
      "Dr": 2514,
      "Jack": 2515,
      "Som": 2516,
      "reen": 2517,
      "ample": 2518,
      "writing": 2519,
      "development": 2520,
      "nia": 2521,
      "Town": 2522,
      "vill": 2523,
      "reached": 2524,
      "want": 2525,
      "ount": 2526,
      "aff": 2527,
      "mix": 2528,
      "aign": 2529,
      "good": 2530,
      "ino": 2531,
      "techn": 2532,
      "others": 2533,
      "Po": 2534,
      "cil": 2535,
      "god": 2536,
      "hab": 2537,
      "ination": 2538,
      "exist": 2539,
      "lect": 2540,
      "appoint": 2541,
      "need": 2542,
      "2004": 2543,
      "completed": 2544,
      "Mont": 2545,
      "James": 2546,
      "ality": 2547,
      "thought": 2548,
      "fig": 2549,
      "sound": 2550,
      "entire": 2551,
      "debut": 2552,
      "Music": 2553,
      "names": 2554,
      "rock": 2555,
      "pred": 2556,
      "interest": 2557,
      "region": 2558,
      "Ham": 2559,
      "Str": 2560,
      "rew": 2561,
      "itive": 2562,
      "players": 2563,
      "relation": 2564,
      "tradition": 2565,
      "Federer": 2566,
      "base": 2567,
      "vent": 2568,
      "conne": 2569,
      "himself": 2570,
      "located": 2571,
      "appeared": 2572,
      "aper": 2573,
      "gether": 2574,
      "created": 2575,
      "Grand": 2576,
      "Mag": 2577,
      "eight": 2578,
      "inal": 2579,
      "ana": 2580,
      "ille": 2581,
      "iting": 2582,
      "experi": 2583,
      "noted": 2584,
      "cop": 2585,
      "non": 2586,
      "ues": 2587,
      "ara": 2588,
      "performed": 2589,
      "directed": 2590,
      "route": 2591,
      "lik": 2592,
      "profess": 2593,
      "television": 2594,
      "Am": 2595,
      "free": 2596,
      "too": 2597,
      "scored": 2598,
      "started": 2599,
      "ades": 2600,
      "ung": 2601,
      "formation": 2602,
      "Ab": 2603,
      "Gal": 2604,
      "Ol": 2605,
      "Pres": 2606,
      "aud": 2607,
      "ha": 2608,
      "theast": 2609,
      "alion": 2610,
      "suf": 2611,
      "prim": 2612,
      "Stre": 2613,
      "France": 2614,
      "Kingdom": 2615,
      "performance": 2616,
      "cir": 2617,
      "era": 2618,
      "study": 2619,
      "squ": 2620,
      "und": 2621,
      "ots": 2622,
      "Med": 2623,
      "ky": 2624,
      "ties": 2625,
      "asing": 2626,
      "ago": 2627,
      "regular": 2628,
      "political": 2629,
      "Cup": 2630,
      "NY": 2631,
      "ique": 2632,
      "ze": 2633,
      "omb": 2634,
      "wid": 2635,
      "wife": 2636,
      "yards": 2637,
      "ida": 2638,
      "ota": 2639,
      "ability": 2640,
      "Brig": 2641,
      "God": 2642,
      "grow": 2643,
      "ander": 2644,
      "ches": 2645,
      "lands": 2646,
      "poem": 2647,
      "graphy": 2648,
      "southern": 2649,
      "Some": 2650,
      "ape": 2651,
      "2003": 2652,
      "know": 2653,
      "Har": 2654,
      "Wales": 2655,
      "cing": 2656,
      "stone": 2657,
      "aly": 2658,
      "osaur": 2659,
      "arded": 2660,
      "remained": 2661,
      "ston": 2662,
      "itted": 2663,
      "vers": 2664,
      "caused": 2665,
      "You": 2666,
      "far": 2667,
      "front": 2668,
      "rain": 2669,
      "enced": 2670,
      "does": 2671,
      "surv": 2672,
      "features": 2673,
      "service": 2674,
      "little": 2675,
      "birds": 2676,
      "announced": 2677,
      "host": 2678,
      "sport": 2679,
      "ington": 2680,
      "odes": 2681,
      "highway": 2682,
      "originally": 2683,
      "break": 2684,
      "David": 2685,
      "Mex": 2686,
      "Part": 2687,
      "broad": 2688,
      "har": 2689,
      "uck": 2690,
      "room": 2691,
      "current": 2692,
      "opened": 2693,
      "campaign": 2694,
      "Flor": 2695,
      "don": 2696,
      "nat": 2697,
      "research": 2698,
      "tra": 2699,
      "elect": 2700,
      "followed": 2701,
      "goal": 2702,
      "possible": 2703,
      "Jer": 2704,
      "Other": 2705,
      "ping": 2706,
      "acc": 2707,
      "termin": 2708,
      "stry": 2709,
      "lower": 2710,
      "hon": 2711,
      "loss": 2712,
      "sour": 2713,
      "tre": 2714,
      "leet": 2715,
      "least": 2716,
      "2015": 2717,
      "eastern": 2718,
      "months": 2719,
      "38": 2720,
      "cause": 2721,
      "dle": 2722,
      "fif": 2723,
      "TV": 2724,
      "fav": 2725,
      "lin": 2726,
      "fourth": 2727,
      "killed": 2728,
      "Mor": 2729,
      "cru": 2730,
      "pair": 2731,
      "sw": 2732,
      "atin": 2733,
      "commer": 2734,
      "igned": 2735,
      "mean": 2736,
      "Arab": 2737,
      "ficult": 2738,
      "Australian": 2739,
      "iers": 2740,
      "iated": 2741,
      "peak": 2742,
      "recogn": 2743,
      "central": 2744,
      "Sun": 2745,
      "gin": 2746,
      "van": 2747,
      "women": 2748,
      "once": 2749,
      "process": 2750,
      "illa": 2751,
      "western": 2752,
      "Street": 2753,
      "31": 2754,
      "45": 2755,
      "Cent": 2756,
      "Cam": 2757,
      "Fir": 2758,
      "lines": 2759,
      "vest": 2760,
      "voc": 2761,
      "young": 2762,
      "attr": 2763,
      "assoc": 2764,
      "difficult": 2765,
      "uk": 2766,
      "example": 2767,
      "Two": 2768,
      "Atlantic": 2769,
      "case": 2770,
      "either": 2771,
      "mater": 2772,
      "188": 2773,
      "meet": 2774,
      "points": 2775,
      "generally": 2776,
      "Mad": 2777,
      "cup": 2778,
      "wide": 2779,
      "term": 2780,
      "emy": 2781,
      "eventually": 2782,
      "battle": 2783,
      "together": 2784,
      "sea": 2785,
      "Hen": 2786,
      "Ir": 2787,
      "Mac": 2788,
      "Paul": 2789,
      "mph": 2790,
      "taken": 2791,
      "defe": 2792,
      "employ": 2793,
      "proble": 2794,
      "consist": 2795,
      "leading": 2796,
      "laun": 2797,
      "live": 2798,
      "pat": 2799,
      "stant": 2800,
      "iron": 2801,
      "move": 2802,
      "featured": 2803,
      "friend": 2804,
      "Sci": 2805,
      "hor": 2806,
      "lam": 2807,
      "instead": 2808,
      "icated": 2809,
      "bet": 2810,
      "ordan": 2811,
      "special": 2812,
      "critics": 2813,
      "Bal": 2814,
      "Bill": 2815,
      "accept": 2816,
      "separ": 2817,
      "anti": 2818,
      "forms": 2819,
      "Florida": 2820,
      "felt": 2821,
      "ata": 2822,
      "teen": 2823,
      "liament": 2824,
      "Army": 2825,
      "White": 2826,
      "promot": 2827,
      "35": 2828,
      "Min": 2829,
      "Rev": 2830,
      "cul": 2831,
      "dou": 2832,
      "got": 2833,
      "ls": 2834,
      "mot": 2835,
      "river": 2836,
      "condu": 2837,
      "19th": 2838,
      "estim": 2839,
      "rail": 2840,
      "70": 2841,
      "Du": 2842,
      "Jew": 2843,
      "Jordan": 2844,
      "heavy": 2845,
      "2001": 2846,
      "iction": 2847,
      "langu": 2848,
      "European": 2849,
      "leng": 2850,
      "ened": 2851,
      "ari": 2852,
      "compan": 2853,
      "writer": 2854,
      "quarter": 2855,
      "Royal": 2856,
      "ience": 2857,
      "ivid": 2858,
      "unk": 2859,
      "ements": 2860,
      "Tech": 2861,
      "mission": 2862,
      "ring": 2863,
      "pra": 2864,
      "achie": 2865,
      "type": 2866,
      "appearance": 2867,
      "Christian": 2868,
      "Oldham": 2869,
      "Company": 2870,
      "urb": 2871,
      "ellow": 2872,
      "finished": 2873,
      "Bay": 2874,
      "Vir": 2875,
      "fight": 2876,
      "member": 2877,
      "treat": 2878,
      "largest": 2879,
      "First": 2880,
      "Mark": 2881,
      "San": 2882,
      "conom": 2883,
      "Ang": 2884,
      "cret": 2885,
      "general": 2886,
      "guns": 2887,
      "Ap": 2888,
      "ded": 2889,
      "saw": 2890,
      "section": 2891,
      "2014": 2892,
      "director": 2893,
      "viol": 2894,
      "2nd": 2895,
      "Card": 2896,
      "Day": 2897,
      "Sw": 2898,
      "ita": 2899,
      "respect": 2900,
      "prob": 2901,
      "playing": 2902,
      "characters": 2903,
      "History": 2904,
      "ishing": 2905,
      "cert": 2906,
      "cially": 2907,
      "Play": 2908,
      "International": 2909,
      "length": 2910,
      "FA": 2911,
      "lack": 2912,
      "ospit": 2913,
      "elements": 2914,
      "added": 2915,
      "Rep": 2916,
      "ators": 2917,
      "sem": 2918,
      "ids": 2919,
      "assist": 2920,
      "parts": 2921,
      "spir": 2922,
      "redu": 2923,
      "medi": 2924,
      "George": 2925,
      "ked": 2926,
      "ica": 2927,
      "upon": 2928,
      "rick": 2929,
      "eding": 2930,
      "36": 2931,
      "Val": 2932,
      "ply": 2933,
      "hest": 2934,
      "decided": 2935,
      "date": 2936,
      "wall": 2937,
      "inj": 2938,
      "working": 2939,
      "provided": 2940,
      "troops": 2941,
      "crew": 2942,
      "Bus": 2943,
      "Don": 2944,
      "Hel": 2945,
      "mal": 2946,
      "ouri": 2947,
      "ifa": 2948,
      "meas": 2949,
      "aircraft": 2950,
      "III": 2951,
      "designed": 2952,
      "football": 2953,
      "business": 2954,
      "House": 2955,
      "Up": 2956,
      "bi": 2957,
      "ials": 2958,
      "irth": 2959,
      "clos": 2960,
      "particularly": 2961,
      "AA": 2962,
      "My": 2963,
      "almost": 2964,
      "ites": 2965,
      "ify": 2966,
      "Robert": 2967,
      "Michael": 2968,
      "earlier": 2969,
      "90": 2970,
      "Not": 2971,
      "Res": 2972,
      "cross": 2973,
      "hib": 2974,
      "ential": 2975,
      "olic": 2976,
      "certain": 2977,
      "approach": 2978,
      "victory": 2979,
      "80": 2980,
      "gold": 2981,
      "sen": 2982,
      "forced": 2983,
      "cts": 2984,
      "cost": 2985,
      "help": 2986,
      "engine": 2987,
      "Early": 2988,
      "75": 2989,
      "From": 2990,
      "ering": 2991,
      "erous": 2992,
      "reve": 2993,
      "super": 2994,
      "iff": 2995,
      "185": 2996,
      "syn": 2997,
      "remains": 2998,
      "contract": 2999,
      "Haifa": 3000,
      "script": 3001,
      "civil": 3002,
      "complet": 3003,
      "useum": 3004,
      "operations": 3005,
      "standing": 3006,
      "Missouri": 3007,
      "Championship": 3008,
      "Game": 3009,
      "tell": 3010,
      "err": 3011,
      "istic": 3012,
      "pool": 3013,
      "rael": 3014,
      "Island": 3015,
      "Phil": 3016,
      "behind": 3017,
      "Cap": 3018,
      "Ze": 3019,
      "pan": 3020,
      "rat": 3021,
      "vot": 3022,
      "yn": 3023,
      "accoun": 3024,
      "Carol": 3025,
      "opening": 3026,
      "court": 3027,
      "Indian": 3028,
      "allowed": 3029,
      "claimed": 3030,
      "Mexico": 3031,
      "Follow": 3032,
      "Most": 3033,
      "Rock": 3034,
      "sch": 3035,
      "vice": 3036,
      "stage": 3037,
      "northern": 3038,
      "damage": 3039,
      "joined": 3040,
      "believed": 3041,
      "Dev": 3042,
      "Var": 3043,
      "tail": 3044,
      "outside": 3045,
      "weeks": 3046,
      "Egy": 3047,
      "Que": 3048,
      "pain": 3049,
      "enon": 3050,
      "utes": 3051,
      "aker": 3052,
      "ready": 3053,
      "ximately": 3054,
      "female": 3055,
      "Cer": 3056,
      "Red": 3057,
      "lay": 3058,
      "oring": 3059,
      "itz": 3060,
      "amed": 3061,
      "ighest": 3062,
      "individ": 3063,
      "Israel": 3064,
      "cycl": 3065,
      "President": 3066,
      "Irish": 3067,
      "Hol": 3068,
      "Mary": 3069,
      "Viet": 3070,
      "station": 3071,
      "lear": 3072,
      "whom": 3073,
      "iding": 3074,
      "comment": 3075,
      "2002": 3076,
      "priv": 3077,
      "rang": 3078,
      "space": 3079,
      "fantry": 3080,
      "habit": 3081,
      "Republic": 3082,
      "Following": 3083,
      "Mal": 3084,
      "Qu": 3085,
      "ding": 3086,
      "past": 3087,
      "ribut": 3088,
      "Thom": 3089,
      "soon": 3090,
      "increased": 3091,
      "Oliv": 3092,
      "Ke": 3093,
      "Navy": 3094,
      "Tor": 3095,
      "bes": 3096,
      "doc": 3097,
      "race": 3098,
      "imm": 3099,
      "active": 3100,
      "block": 3101,
      "stein": 3102,
      "respons": 3103,
      "community": 3104,
      "manager": 3105,
      "Richard": 3106,
      "500": 3107,
      "School": 3108,
      "ds": 3109,
      "highest": 3110,
      "oto": 3111,
      "reason": 3112,
      "replaced": 3113,
      "actions": 3114,
      "brought": 3115,
      "worked": 3116,
      "turned": 3117,
      "Canada": 3118,
      "village": 3119,
      "Gold": 3120,
      "NA": 3121,
      "touch": 3122,
      "aces": 3123,
      "poor": 3124,
      "minist": 3125,
      "pie": 3126,
      "ration": 3127,
      "proper": 3128,
      "India": 3129,
      "previously": 3130,
      "appointed": 3131,
      "Act": 3132,
      "hous": 3133,
      "whe": 3134,
      "thod": 3135,
      "stay": 3136,
      "stren": 3137,
      "ication": 3138,
      "ention": 3139,
      "evidence": 3140,
      "Henry": 3141,
      "Ver": 3142,
      "daugh": 3143,
      "hurricane": 3144,
      "ris": 3145,
      "avail": 3146,
      "ume": 3147,
      "Union": 3148,
      "goals": 3149,
      "Colle": 3150,
      "Egypt": 3151,
      "Great": 3152,
      "Hot": 3153,
      "ML": 3154,
      "Pac": 3155,
      "Soc": 3156,
      "ecut": 3157,
      "econom": 3158,
      "mis": 3159,
      "pet": 3160,
      "towards": 3161,
      "compl": 3162,
      "shot": 3163,
      "2000": 3164,
      "pract": 3165,
      "subsequ": 3166,
      "signed": 3167,
      "Battalion": 3168,
      "Love": 3169,
      "birth": 3170,
      "gg": 3171,
      "rate": 3172,
      "eds": 3173,
      "186": 3174,
      "specific": 3175,
      "listed": 3176,
      "Film": 3177,
      "cal": 3178,
      "fa": 3179,
      "hours": 3180,
      "nomin": 3181,
      "ses": 3182,
      "somet": 3183,
      "woman": 3184,
      "winning": 3185,
      "icted": 3186,
      "oney": 3187,
      "particip": 3188,
      "Canadian": 3189,
      "streng": 3190,
      "Care": 3191,
      "Cath": 3192,
      "Mid": 3193,
      "bill": 3194,
      "tor": 3195,
      "yer": 3196,
      "atory": 3197,
      "aries": 3198,
      "eler": 3199,
      "ples": 3200,
      "love": 3201,
      "commission": 3202,
      "azine": 3203,
      "approximately": 3204,
      "average": 3205,
      "religious": 3206,
      "Later": 3207,
      "Many": 3208,
      "bow": 3209,
      "bound": 3210,
      "ray": 3211,
      "ugu": 3212,
      "independ": 3213,
      "above": 3214,
      "ibility": 3215,
      "coach": 3216,
      "complete": 3217,
      "pressed": 3218,
      "Africa": 3219,
      "flood": 3220,
      "Super": 3221,
      "Best": 3222,
      "Hurricane": 3223,
      "drop": 3224,
      "fru": 3225,
      "hit": 3226,
      "hom": 3227,
      "here": 3228,
      "pot": 3229,
      "size": 3230,
      "ville": 3231,
      "thedr": 3232,
      "aland": 3233,
      "lected": 3234,
      "units": 3235,
      "quick": 3236,
      "rather": 3237,
      "involved": 3238,
      "Virgin": 3239,
      "Route": 3240,
      "fly": 3241,
      "nel": 3242,
      "pers": 3243,
      "sed": 3244,
      "watch": 3245,
      "threat": 3246,
      "stop": 3247,
      "alter": 3248,
      "territ": 3249,
      "usion": 3250,
      "ula": 3251,
      "occup": 3252,
      "Art": 3253,
      "social": 3254,
      "Japanese": 3255,
      "suffer": 3256,
      "Olivier": 3257,
      "48": 3258,
      "foc": 3259,
      "gal": 3260,
      "mult": 3261,
      "think": 3262,
      "aters": 3263,
      "concl": 3264,
      "maintain": 3265,
      "1995": 3266,
      "related": 3267,
      "transport": 3268,
      "Regiment": 3269,
      "estimated": 3270,
      "Awards": 3271,
      "Bra": 3272,
      "Cong": 3273,
      "Creek": 3274,
      "Sou": 3275,
      "los": 3276,
      "ving": 3277,
      "deal": 3278,
      "ems": 3279,
      "tries": 3280,
      "print": 3281,
      "invest": 3282,
      "structure": 3283,
      "SA": 3284,
      "Sch": 3285,
      "cern": 3286,
      "ih": 3287,
      "nest": 3288,
      "Stud": 3289,
      "rics": 3290,
      "ference": 3291,
      "official": 3292,
      "establish": 3293,
      "Award": 3294,
      "La": 3295,
      "Pri": 3296,
      "hun": 3297,
      "liter": 3298,
      "mel": 3299,
      "must": 3300,
      "native": 3301,
      "phas": 3302,
      "heav": 3303,
      "usually": 3304,
      "comes": 3305,
      "mention": 3306,
      "interview": 3307,
      "flight": 3308,
      "ification": 3309,
      "passed": 3310,
      "relationship": 3311,
      "Hall": 3312,
      "ken": 3313,
      "ilities": 3314,
      "apt": 3315,
      "recording": 3316,
      "alifor": 3317,
      "Peter": 3318,
      "Brigade": 3319,
      "available": 3320,
      "thedral": 3321,
      "39": 3322,
      "Sing": 3323,
      "aut": 3324,
      "hard": 3325,
      "ius": 3326,
      "nation": 3327,
      "nine": 3328,
      "taking": 3329,
      "occas": 3330,
      "assigned": 3331,
      "box": 3332,
      "ranch": 3333,
      "whose": 3334,
      "phys": 3335,
      "nearly": 3336,
      "marked": 3337,
      "47": 3338,
      "Sm": 3339,
      "bri": 3340,
      "thus": 3341,
      "itself": 3342,
      "condoms": 3343,
      "object": 3344,
      "transfer": 3345,
      "contribut": 3346,
      "introduced": 3347,
      "defeated": 3348,
      "Tom": 3349,
      "fail": 3350,
      "give": 3351,
      "conv": 3352,
      "plann": 3353,
      "quest": 3354,
      "center": 3355,
      "capital": 3356,
      "wanted": 3357,
      "professional": 3358,
      "Galvest": 3359,
      "natural": 3360,
      "Pacific": 3361,
      "Galveston": 3362,
      "dol": 3363,
      "food": 3364,
      "gress": 3365,
      "hol": 3366,
      "ike": 3367,
      "prec": 3368,
      "rd": 3369,
      "zz": 3370,
      "states": 3371,
      "itch": 3372,
      "ounted": 3373,
      "187": 3374,
      "bridge": 3375,
      "inner": 3376,
      "porary": 3377,
      "increasing": 3378,
      "saying": 3379,
      "probably": 3380,
      "But": 3381,
      "Califor": 3382,
      "score": 3383,
      "surround": 3384,
      "pitch": 3385,
      "situ": 3386,
      "Em": 3387,
      "Fort": 3388,
      "Hill": 3389,
      "uel": 3390,
      "thes": 3391,
      "onse": 3392,
      "espe": 3393,
      "1950": 3394,
      "tee": 3395,
      "discus": 3396,
      "Arch": 3397,
      "counter": 3398,
      "temper": 3399,
      "culture": 3400,
      "language": 3401,
      "sometimes": 3402,
      "especially": 3403,
      "1st": 3404,
      "Bri": 3405,
      "Back": 3406,
      "ny": 3407,
      "sil": 3408,
      "oration": 3409,
      "ctive": 3410,
      "ett": 3411,
      "scen": 3412,
      "president": 3413,
      "commercial": 3414,
      "UK": 3415,
      "bal": 3416,
      "failed": 3417,
      "inst": 3418,
      "educ": 3419,
      "riage": 3420,
      "anna": 3421,
      "shows": 3422,
      "issue": 3423,
      "Despite": 3424,
      "33": 3425,
      "Brown": 3426,
      "Dan": 3427,
      "Met": 3428,
      "Oper": 3429,
      "gent": 3430,
      "sat": 3431,
      "atops": 3432,
      "league": 3433,
      "pected": 3434,
      "arts": 3435,
      "includes": 3436,
      "colon": 3437,
      "surface": 3438,
      "Britain": 3439,
      "students": 3440,
      "latter": 3441,
      "sal": 3442,
      "tom": 3443,
      "ronic": 3444,
      "cient": 3445,
      "winds": 3446,
      "Zealand": 3447,
      "Land": 3448,
      "Latin": 3449,
      "cou": 3450,
      "rid": 3451,
      "orial": 3452,
      "arily": 3453,
      "cean": 3454,
      "cele": 3455,
      "execut": 3456,
      "percent": 3457,
      "scene": 3458,
      "screen": 3459,
      "Assoc": 3460,
      "respond": 3461,
      "Thomas": 3462,
      "California": 3463,
      "Camp": 3464,
      "defin": 3465,
      "That": 3466,
      "prepar": 3467,
      "1999": 3468,
      "studio": 3469,
      "constructed": 3470,
      "response": 3471,
      "Georg": 3472,
      "likely": 3473,
      "Gul": 3474,
      "Penn": 3475,
      "Sov": 3476,
      "Tur": 3477,
      "bs": 3478,
      "ios": 3479,
      "aled": 3480,
      "tolog": 3481,
      "ady": 3482,
      "agon": 3483,
      "contains": 3484,
      "pressure": 3485,
      "broadcast": 3486,
      "Fow": 3487,
      "Sol": 3488,
      "bit": 3489,
      "bio": 3490,
      "flow": 3491,
      "ming": 3492,
      "nis": 3493,
      "send": 3494,
      "uter": 3495,
      "inated": 3496,
      "argu": 3497,
      "sey": 3498,
      "imp": 3499,
      "despite": 3500,
      "international": 3501,
      "minutes": 3502,
      "damaged": 3503,
      "travel": 3504,
      "material": 3505,
      "Gl": 3506,
      "Ot": 3507,
      "RA": 3508,
      "Tri": 3509,
      "Wood": 3510,
      "lot": 3511,
      "mach": 3512,
      "male": 3513,
      "according": 3514,
      "depression": 3515,
      "aval": 3516,
      "proved": 3517,
      "running": 3518,
      "stitute": 3519,
      "suggested": 3520,
      "Sam": 3521,
      "cu": 3522,
      "jour": 3523,
      "miss": 3524,
      "ores": 3525,
      "ream": 3526,
      "asy": 3527,
      "ases": 3528,
      "ishop": 3529,
      "spent": 3530,
      "athus": 3531,
      "visit": 3532,
      "going": 3533,
      "Charles": 3534,
      "mixed": 3535,
      "fifth": 3536,
      "Jam": 3537,
      "ns": 3538,
      "pay": 3539,
      "ti": 3540,
      "throw": 3541,
      "training": 3542,
      "shown": 3543,
      "exc": 3544,
      "Star": 3545,
      "Western": 3546,
      "limited": 3547,
      "referred": 3548,
      "Ho": 3549,
      "bot": 3550,
      "cred": 3551,
      "lived": 3552,
      "aring": 3553,
      "conf": 3554,
      "concern": 3555,
      "idents": 3556,
      "ateg": 3557,
      "pring": 3558,
      "partment": 3559,
      "discovered": 3560,
      "Record": 3561,
      "osaurus": 3562,
      "Central": 3563,
      "Im": 3564,
      "Since": 3565,
      "mur": 3566,
      "mun": 3567,
      "might": 3568,
      "rare": 3569,
      "already": 3570,
      "olution": 3571,
      "uss": 3572,
      "uture": 3573,
      "perform": 3574,
      "iple": 3575,
      "Storm": 3576,
      "office": 3577,
      "rict": 3578,
      "minor": 3579,
      "media": 3580,
      "market": 3581,
      "Fowler": 3582,
      "44": 3583,
      "Bel": 3584,
      "Go": 3585,
      "Whe": 3586,
      "Year": 3587,
      "frequ": 3588,
      "ires": 3589,
      "mic": 3590,
      "chap": 3591,
      "forward": 3592,
      "appl": 3593,
      "umb": 3594,
      "tray": 3595,
      "exam": 3596,
      "dise": 3597,
      "location": 3598,
      "married": 3599,
      "metres": 3600,
      "Jewish": 3601,
      "Catholic": 3602,
      "Mos": 3603,
      "Tropical": 3604,
      "lap": 3605,
      "uals": 3606,
      "ergy": 3607,
      "notes": 3608,
      "tons": 3609,
      "provide": 3610,
      "remaining": 3611,
      "distribut": 3612,
      "reviews": 3613,
      "beginning": 3614,
      "initially": 3615,
      "ospital": 3616,
      "Ba": 3617,
      "FI": 3618,
      "Sto": 3619,
      "Ter": 3620,
      "oid": 3621,
      "ón": 3622,
      "told": 3623,
      "champion": 3624,
      "aven": 3625,
      "indic": 3626,
      "1998": 3627,
      "larger": 3628,
      "police": 3629,
      "settle": 3630,
      "daughter": 3631,
      "Bro": 3632,
      "Dj": 3633,
      "Sar": 3634,
      "Sur": 3635,
      "bell": 3636,
      "kil": 3637,
      "edy": 3638,
      "acqu": 3639,
      "entered": 3640,
      "dead": 3641,
      "selves": 3642,
      "operation": 3643,
      "Hero": 3644,
      "admium": 3645,
      "meaning": 3646,
      "schol": 3647,
      "76": 3648,
      "Bow": 3649,
      "Che": 3650,
      "Mart": 3651,
      "ho": 3652,
      "wal": 3653,
      "enj": 3654,
      "army": 3655,
      "becoming": 3656,
      "uments": 3657,
      "model": 3658,
      "protest": 3659,
      "ordered": 3660,
      "20th": 3661,
      "forest": 3662,
      "additional": 3663,
      "praised": 3664,
      "Del": 3665,
      "Tex": 3666,
      "ben": 3667,
      "insp": 3668,
      "tourn": 3669,
      "Chic": 3670,
      "pole": 3671,
      "films": 3672,
      "subject": 3673,
      "appears": 3674,
      "groups": 3675,
      "quarters": 3676,
      "changed": 3677,
      "nucle": 3678,
      "summer": 3679,
      "launched": 3680,
      "37": 3681,
      "Cro": 3682,
      "If": 3683,
      "Lan": 3684,
      "Light": 3685,
      "Pat": 3686,
      "link": 3687,
      "xenon": 3688,
      "access": 3689,
      "lyrics": 3690,
      "olk": 3691,
      "demon": 3692,
      "condom": 3693,
      "larg": 3694,
      "critical": 3695,
      "required": 3696,
      "African": 3697,
      "problems": 3698,
      "private": 3699,
      "AI": 3700,
      "Mer": 3701,
      "Squ": 3702,
      "Tenn": 3703,
      "fleet": 3704,
      "lie": 3705,
      "irt": 3706,
      "immedi": 3707,
      "affic": 3708,
      "acted": 3709,
      "bled": 3710,
      "blood": 3711,
      "intended": 3712,
      "plays": 3713,
      "2016": 3714,
      "mostly": 3715,
      "fully": 3716,
      "changes": 3717,
      "Scott": 3718,
      "32": 3719,
      "49": 3720,
      "Law": 3721,
      "Nations": 3722,
      "Spe": 3723,
      "Saint": 3724,
      "paren": 3725,
      "text": 3726,
      "istics": 3727,
      "ody": 3728,
      "earth": 3729,
      "feel": 3730,
      "contem": 3731,
      "newsp": 3732,
      "themselves": 3733,
      "Busch": 3734,
      "Lu": 3735,
      "Tre": 3736,
      "money": 3737,
      "teach": 3738,
      "anta": 3739,
      "overall": 3740,
      "iano": 3741,
      "intens": 3742,
      "musical": 3743,
      "teams": 3744,
      "Parliament": 3745,
      "Battle": 3746,
      "stream": 3747,
      "Billboard": 3748,
      "Association": 3749,
      "Cal": 3750,
      "How": 3751,
      "Lou": 3752,
      "Lake": 3753,
      "Mill": 3754,
      "Minn": 3755,
      "Pen": 3756,
      "ault": 3757,
      "makes": 3758,
      "deep": 3759,
      "1930": 3760,
      "reser": 3761,
      "upper": 3762,
      "archae": 3763,
      "1993": 3764,
      "Northern": 3765,
      "aught": 3766,
      "industry": 3767,
      "Carey": 3768,
      "Texas": 3769,
      "Chicago": 3770,
      "Bob": 3771,
      "Of": 3772,
      "Oda": 3773,
      "ga": 3774,
      "hus": 3775,
      "happ": 3776,
      "spo": 3777,
      "enough": 3778,
      "stories": 3779,
      "secut": 3780,
      "determin": 3781,
      "idea": 3782,
      "ranked": 3783,
      "positive": 3784,
      "feature": 3785,
      "prevent": 3786,
      "buildings": 3787,
      "course": 3788,
      "effects": 3789,
      "Odaen": 3790,
      "Tour": 3791,
      "fre": 3792,
      "hair": 3793,
      "job": 3794,
      "tic": 3795,
      "anish": 3796,
      "atively": 3797,
      "ift": 3798,
      "pose": 3799,
      "syl": 3800,
      "asked": 3801,
      "Earth": 3802,
      "Series": 3803,
      "nuclear": 3804,
      "better": 3805,
      "Carolina": 3806,
      "Odaenathus": 3807,
      "Liver": 3808,
      "MS": 3809,
      "Over": 3810,
      "Times": 3811,
      "fill": 3812,
      "entolog": 3813,
      "ands": 3814,
      "keep": 3815,
      "runs": 3816,
      "Council": 3817,
      "largely": 3818,
      "Ca": 3819,
      "Foot": 3820,
      "future": 3821,
      "takes": 3822,
      "vic": 3823,
      "adium": 3824,
      "apo": 3825,
      "vey": 3826,
      "Under": 3827,
      "moving": 3828,
      "Somer": 3829,
      "favor": 3830,
      "Angel": 3831,
      "College": 3832,
      "Ill": 3833,
      "NC": 3834,
      "Tran": 3835,
      "jud": 3836,
      "path": 3837,
      "aging": 3838,
      "trade": 3839,
      "odon": 3840,
      "acting": 3841,
      "Its": 3842,
      "Another": 3843,
      "records": 3844,
      "decision": 3845,
      "smaller": 3846,
      "possess": 3847,
      "greater": 3848,
      "radio": 3849,
      "Scientolog": 3850,
      "document": 3851,
      "celebr": 3852,
      "Liverpool": 3853,
      "Crit": 3854,
      "Dem": 3855,
      "fell": 3856,
      "gas": 3857,
      "hop": 3858,
      "slow": 3859,
      "esota": 3860,
      "ceed": 3861,
      "fected": 3862,
      "ously": 3863,
      "poet": 3864,
      "genus": 3865,
      "Frank": 3866,
      "Spanish": 3867,
      "voice": 3868,
      "prior": 3869,
      "Minnesota": 3870,
      "Somerset": 3871,
      "3rd": 3872,
      "Cast": 3873,
      "Haw": 3874,
      "kick": 3875,
      "ining": 3876,
      "anas": 3877,
      "always": 3878,
      "health": 3879,
      "acing": 3880,
      "enty": 3881,
      "semb": 3882,
      "irl": 3883,
      "ump": 3884,
      "exper": 3885,
      "earned": 3886,
      "ports": 3887,
      "itect": 3888,
      "meant": 3889,
      "1996": 3890,
      "minute": 3891,
      "episodes": 3892,
      "majority": 3893,
      "increase": 3894,
      "proteins": 3895,
      "Anderson": 3896,
      "conducted": 3897,
      "touchdown": 3898,
      "Virginia": 3899,
      "sembly": 3900,
      "Mil": 3901,
      "bon": 3902,
      "dy": 3903,
      "hood": 3904,
      "kan": 3905,
      "amount": 3906,
      "ipp": 3907,
      "helm": 3908,
      "carried": 3909,
      "variety": 3910,
      "anks": 3911,
      "issued": 3912,
      "46": 3913,
      "Dis": 3914,
      "Rose": 3915,
      "Sever": 3916,
      "dig": 3917,
      "hic": 3918,
      "ners": 3919,
      "sus": 3920,
      "waters": 3921,
      "secur": 3922,
      "traffic": 3923,
      "Second": 3924,
      "northeast": 3925,
      "1970": 3926,
      "legal": 3927,
      "occurred": 3928,
      "agreed": 3929,
      "traditional": 3930,
      "widely": 3931,
      "Wheeler": 3932,
      "inspired": 3933,
      "Bu": 3934,
      "Hor": 3935,
      "Open": 3936,
      "bad": 3937,
      "mat": 3938,
      "atre": 3939,
      "alys": 3940,
      "andon": 3941,
      "ican": 3942,
      "lymp": 3943,
      "Alice": 3944,
      "Thunder": 3945,
      "photo": 3946,
      "Reception": 3947,
      "numbers": 3948,
      "jected": 3949,
      "inkel": 3950,
      "portray": 3951,
      "onym": 3952,
      "Guitar": 3953,
      "Meyer": 3954,
      "Service": 3955,
      "influence": 3956,
      "destroyed": 3957,
      "rapid": 3958,
      "experience": 3959,
      "double": 3960,
      "300": 3961,
      "BA": 3962,
      "Fin": 3963,
      "Finkel": 3964,
      "Lord": 3965,
      "Olymp": 3966,
      "done": 3967,
      "mouth": 3968,
      "pow": 3969,
      "reception": 3970,
      "ald": 3971,
      "confl": 3972,
      "artist": 3973,
      "method": 3974,
      "starting": 3975,
      "Prince": 3976,
      "stitut": 3977,
      "competition": 3978,
      "Soviet": 3979,
      "Otto": 3980,
      "Finkelstein": 3981,
      "Ale": 3982,
      "Dam": 3983,
      "Six": 3984,
      "cm": 3985,
      "alled": 3986,
      "estival": 3987,
      "acts": 3988,
      "actor": 3989,
      "compared": 3990,
      "Three": 3991,
      "Enter": 3992,
      "orning": 3993,
      "popul": 3994,
      "studies": 3995,
      "marriage": 3996,
      "brother": 3997,
      "equip": 3998,
      "Wilhelm": 3999,
      "brief": 4000,
      "Fore": 4001,
      "Long": 4002,
      "So": 4003,
      "Water": 4004,
      "ging": 4005,
      "hot": 4006,
      "mes": 4007,
      "ustr": 4008,
      "ederal": 4009,
      "ency": 4010,
      "staff": 4011,
      "iser": 4012,
      "adron": 4013,
      "beer": 4014,
      "defeat": 4015,
      "plans": 4016,
      "uded": 4017,
      "grant": 4018,
      "ounds": 4019,
      "inese": 4020,
      "polic": 4021,
      "nearby": 4022,
      "types": 4023,
      "source": 4024,
      "Scientology": 4025,
      "Mr": 4026,
      "Tru": 4027,
      "mor": 4028,
      "nature": 4029,
      "pson": 4030,
      "ises": 4031,
      "leaving": 4032,
      "cting": 4033,
      "abama": 4034,
      "worth": 4035,
      "scient": 4036,
      "recover": 4037,
      "Alabama": 4038,
      "discover": 4039,
      "weight": 4040,
      "extended": 4041,
      "longer": 4042,
      "Colon": 4043,
      "bodies": 4044,
      "arrived": 4045,
      "personal": 4046,
      "Hait": 4047,
      "activity": 4048,
      "Queen": 4049,
      "disease": 4050,
      "Jose": 4051,
      "Os": 4052,
      "han": 4053,
      "ker": 4054,
      "lers": 4055,
      "via": 4056,
      "yr": 4057,
      "administ": 4058,
      "olf": 4059,
      "prop": 4060,
      "proposed": 4061,
      "Chinese": 4062,
      "whole": 4063,
      "centre": 4064,
      "means": 4065,
      "finan": 4066,
      "1994": 4067,
      "Sea": 4068,
      "Leg": 4069,
      "books": 4070,
      "Command": 4071,
      "magazine": 4072,
      "sexual": 4073,
      "associated": 4074,
      "murder": 4075,
      "Boy": 4076,
      "Tem": 4077,
      "Wel": 4078,
      "gain": 4079,
      "jun": 4080,
      "ening": 4081,
      "leave": 4082,
      "Their": 4083,
      "university": 4084,
      "abs": 4085,
      "neg": 4086,
      "create": 4087,
      "1997": 4088,
      "Common": 4089,
      "metal": 4090,
      "incor": 4091,
      "attacks": 4092,
      "supported": 4093,
      "performances": 4094,
      "Townsend": 4095,
      "sylvan": 4096,
      "Cour": 4097,
      "Ram": 4098,
      "Rad": 4099,
      "Sal": 4100,
      "dark": 4101,
      "hou": 4102,
      "purch": 4103,
      "tin": 4104,
      "onto": 4105,
      "terms": 4106,
      "necess": 4107,
      "ipal": 4108,
      "portion": 4109,
      "awarded": 4110,
      "Ital": 4111,
      "observ": 4112,
      "countries": 4113,
      "Chris": 4114,
      "standard": 4115,
      "Acad": 4116,
      "Portugu": 4117,
      "status": 4118,
      "Major": 4119,
      "circ": 4120,
      "fighting": 4121,
      "closed": 4122,
      "quickly": 4123,
      "scenes": 4124,
      "sylvania": 4125,
      "Fur": 4126,
      "Lady": 4127,
      "Villa": 4128,
      "cat": 4129,
      "step": 4130,
      "itor": 4131,
      "uries": 4132,
      "finally": 4133,
      "1991": 4134,
      "cathedral": 4135,
      "consider": 4136,
      "movement": 4137,
      "gods": 4138,
      "dollar": 4139,
      "husband": 4140,
      "Football": 4141,
      "Portuguese": 4142,
      "ean": 4143,
      "rect": 4144,
      "itation": 4145,
      "itude": 4146,
      "plant": 4147,
      "mole": 4148,
      "Infantry": 4149,
      "presence": 4150,
      "athan": 4151,
      "raised": 4152,
      "positions": 4153,
      "Like": 4154,
      "Corps": 4155,
      "figures": 4156,
      "Party": 4157,
      "whether": 4158,
      "Dist": 4159,
      "Hu": 4160,
      "Lo": 4161,
      "Time": 4162,
      "aj": 4163,
      "coup": 4164,
      "fans": 4165,
      "living": 4166,
      "mountain": 4167,
      "park": 4168,
      "information": 4169,
      "ato": 4170,
      "aps": 4171,
      "overnor": 4172,
      "timore": 4173,
      "symb": 4174,
      "election": 4175,
      "higher": 4176,
      "Produ": 4177,
      "soldiers": 4178,
      "captured": 4179,
      "Baltimore": 4180,
      "Pennsylvania": 4181,
      "Mog": 4182,
      "Miam": 4183,
      "Way": 4184,
      "nar": 4185,
      "thick": 4186,
      "concept": 4187,
      "ulpt": 4188,
      "peace": 4189,
      "qual": 4190,
      "guitar": 4191,
      "producer": 4192,
      "chester": 4193,
      "request": 4194,
      "directly": 4195,
      "Highway": 4196,
      "Background": 4197,
      "Several": 4198,
      "Meyerbeer": 4199,
      "Miami": 4200,
      "34": 4201,
      "400": 4202,
      "Both": 4203,
      "cadmium": 4204,
      "dro": 4205,
      "dated": 4206,
      "division": 4207,
      "rich": 4208,
      "yl": 4209,
      "arc": 4210,
      "selected": 4211,
      "abandon": 4212,
      "shoot": 4213,
      "except": 4214,
      "Station": 4215,
      "serious": 4216,
      "load": 4217,
      "bring": 4218,
      "inside": 4219,
      "1986": 4220,
      "tracks": 4221,
      "McC": 4222,
      "Palest": 4223,
      "network": 4224,
      "cyclone": 4225,
      "5th": 4226,
      "Dou": 4227,
      "Gi": 4228,
      "Hum": 4229,
      "Kr": 4230,
      "rical": 4231,
      "yet": 4232,
      "grand": 4233,
      "owned": 4234,
      "speed": 4235,
      "numerous": 4236,
      "presented": 4237,
      "complex": 4238,
      "Book": 4239,
      "labor": 4240,
      "subsequently": 4241,
      "Southern": 4242,
      "Just": 4243,
      "Out": 4244,
      "Ty": 4245,
      "Xe": 4246,
      "ba": 4247,
      "batter": 4248,
      "core": 4249,
      "fish": 4250,
      "oo": 4251,
      "wa": 4252,
      "ancient": 4253,
      "atives": 4254,
      "sets": 4255,
      "unit": 4256,
      "emer": 4257,
      "expected": 4258,
      "antim": 4259,
      "hero": 4260,
      "boy": 4261,
      "ibly": 4262,
      "annual": 4263,
      "1992": 4264,
      "relief": 4265,
      "Club": 4266,
      "Paris": 4267,
      "sequence": 4268,
      "Scotland": 4269,
      "primary": 4270,
      "companies": 4271,
      "Illino": 4272,
      "Museum": 4273,
      "Vict": 4274,
      "bury": 4275,
      "lif": 4276,
      "mas": 4277,
      "sched": 4278,
      "anz": 4279,
      "rev": 4280,
      "elop": 4281,
      "deb": 4282,
      "clim": 4283,
      "essa": 4284,
      "prison": 4285,
      "portun": 4286,
      "scoring": 4287,
      "sculpt": 4288,
      "athlet": 4289,
      "spect": 4290,
      "struction": 4291,
      "helped": 4292,
      "150": 4293,
      "promin": 4294,
      "friends": 4295,
      "typically": 4296,
      "achieved": 4297,
      "education": 4298,
      "Bol": 4299,
      "Los": 4300,
      "PA": 4301,
      "big": 4302,
      "piano": 4303,
      "slight": 4304,
      "ert": 4305,
      "omer": 4306,
      "Indu": 4307,
      "prise": 4308,
      "ogue": 4309,
      "recent": 4310,
      "rule": 4311,
      "famil": 4312,
      "advant": 4313,
      "begins": 4314,
      "Eva": 4315,
      "gradu": 4316,
      "suffered": 4317,
      "Green": 4318,
      "Little": 4319,
      "Mem": 4320,
      "bomb": 4321,
      "corn": 4322,
      "hi": 4323,
      "nic": 4324,
      "paper": 4325,
      "theme": 4326,
      "umed": 4327,
      "tran": 4328,
      "China": 4329,
      "elled": 4330,
      "architect": 4331,
      "observed": 4332,
      "venue": 4333,
      "dams": 4334,
      "powerful": 4335,
      "stitution": 4336,
      "collection": 4337,
      "greatest": 4338,
      "Ottoman": 4339,
      "Bur": 4340,
      "Lab": 4341,
      "giving": 4342,
      "uan": 4343,
      "wing": 4344,
      "edge": 4345,
      "isation": 4346,
      "today": 4347,
      "rot": 4348,
      "neut": 4349,
      "neigh": 4350,
      "stra": 4351,
      "vehic": 4352,
      "1990": 4353,
      "leaders": 4354,
      "designated": 4355,
      "sixth": 4356,
      "composed": 4357,
      "vocals": 4358,
      "Mogad": 4359,
      "Emp": 4360,
      "Fam": 4361,
      "Oma": 4362,
      "Sky": 4363,
      "mile": 4364,
      "pon": 4365,
      "saf": 4366,
      "tax": 4367,
      "opportun": 4368,
      "plot": 4369,
      "firm": 4370,
      "boats": 4371,
      "anning": 4372,
      "highly": 4373,
      "founded": 4374,
      "Blue": 4375,
      "Jackson": 4376,
      "Society": 4377,
      "Middle": 4378,
      "Welsh": 4379,
      "Omaha": 4380,
      "42": 4381,
      "56": 4382,
      "Bet": 4383,
      "fox": 4384,
      "fiction": 4385,
      "folk": 4386,
      "ki": 4387,
      "pick": 4388,
      "ufact": 4389,
      "adop": 4390,
      "bey": 4391,
      "beat": 4392,
      "ays": 4393,
      "ultim": 4394,
      "progress": 4395,
      "shire": 4396,
      "mental": 4397,
      "Alkan": 4398,
      "contro": 4399,
      "workers": 4400,
      "annel": 4401,
      "regard": 4402,
      "ledge": 4403,
      "Bey": 4404,
      "below": 4405,
      "continue": 4406,
      "Germany": 4407,
      "itting": 4408,
      "Spain": 4409,
      "Barrow": 4410,
      "issues": 4411,
      "cells": 4412,
      "Simpson": 4413,
      "initial": 4414,
      "account": 4415,
      "piece": 4416,
      "Live": 4417,
      "Russ": 4418,
      "cel": 4419,
      "eu": 4420,
      "kind": 4421,
      "mist": 4422,
      "nes": 4423,
      "rum": 4424,
      "viron": 4425,
      "alle": 4426,
      "forts": 4427,
      "image": 4428,
      "illustr": 4429,
      "bles": 4430,
      "party": 4431,
      "offensive": 4432,
      "writers": 4433,
      "function": 4434,
      "copies": 4435,
      "mentioned": 4436,
      "Empire": 4437,
      "51": 4438,
      "Are": 4439,
      "Jup": 4440,
      "Mount": 4441,
      "Rh": 4442,
      "pun": 4443,
      "sess": 4444,
      "zy": 4445,
      "alty": 4446,
      "chall": 4447,
      "withdraw": 4448,
      "emb": 4449,
      "orders": 4450,
      "blue": 4451,
      "contain": 4452,
      "wealth": 4453,
      "sole": 4454,
      "maxim": 4455,
      "Brad": 4456,
      "advan": 4457,
      "middle": 4458,
      "expand": 4459,
      "respectively": 4460,
      "responsible": 4461,
      "hundr": 4462,
      "heavily": 4463,
      "Mogadish": 4464,
      "Center": 4465,
      "Max": 4466,
      "SP": 4467,
      "Van": 4468,
      "hur": 4469,
      "pil": 4470,
      "thers": 4471,
      "edar": 4472,
      "rein": 4473,
      "aspect": 4474,
      "oud": 4475,
      "heart": 4476,
      "achel": 4477,
      "sec": 4478,
      "adult": 4479,
      "verse": 4480,
      "residents": 4481,
      "mob": 4482,
      "illery": 4483,
      "quality": 4484,
      "offer": 4485,
      "brig": 4486,
      "web": 4487,
      "weap": 4488,
      "phil": 4489,
      "produce": 4490,
      "write": 4491,
      "singer": 4492,
      "appearances": 4493,
      "tower": 4494,
      "distance": 4495,
      "allowing": 4496,
      "defense": 4497,
      "matches": 4498,
      "needed": 4499,
      "commissioned": 4500,
      "fruit": 4501,
      "territory": 4502,
      "demonstr": 4503,
      "53": 4504,
      "Burn": 4505,
      "Jin": 4506,
      "Off": 4507,
      "Ocean": 4508,
      "Post": 4509,
      "Sir": 4510,
      "Tessa": 4511,
      "morning": 4512,
      "inth": 4513,
      "really": 4514,
      "dete": 4515,
      "unable": 4516,
      "poly": 4517,
      "Argent": 4518,
      "mainly": 4519,
      "commit": 4520,
      "featuring": 4521,
      "casual": 4522,
      "Hamels": 4523,
      "completely": 4524,
      "newspaper": 4525,
      "alysis": 4526,
      "Academy": 4527,
      "Illinois": 4528,
      "Mogadishu": 4529,
      "Fl": 4530,
      "Form": 4531,
      "Govern": 4532,
      "MD": 4533,
      "farm": 4534,
      "narr": 4535,
      "sides": 4536,
      "uth": 4537,
      "yellow": 4538,
      "things": 4539,
      "escap": 4540,
      "ows": 4541,
      "Innis": 4542,
      "aust": 4543,
      "aily": 4544,
      "follows": 4545,
      "Because": 4546,
      "distin": 4547,
      "officers": 4548,
      "resulted": 4549,
      "schools": 4550,
      "cultural": 4551,
      "burns": 4552,
      "figure": 4553,
      "reduced": 4554,
      "investig": 4555,
      "planned": 4556,
      "Victor": 4557,
      "Jupiter": 4558,
      "Dire": 4559,
      "cis": 4560,
      "hed": 4561,
      "ka": 4562,
      "rhy": 4563,
      "secret": 4564,
      "igan": 4565,
      "exhib": 4566,
      "ender": 4567,
      "aware": 4568,
      "mond": 4569,
      "drum": 4570,
      "1988": 4571,
      "1980s": 4572,
      "organized": 4573,
      "attempts": 4574,
      "Perón": 4575,
      "vocal": 4576,
      "separate": 4577,
      "Varanas": 4578,
      "tournament": 4579,
      "parents": 4580,
      "contemporary": 4581,
      "Hawai": 4582,
      "Varanasi": 4583,
      "55": 4584,
      "9th": 4585,
      "Do": 4586,
      "Slam": 4587,
      "Wash": 4588,
      "iant": 4589,
      "kin": 4590,
      "rout": 4591,
      "thr": 4592,
      "inches": 4593,
      "reign": 4594,
      "roles": 4595,
      "concert": 4596,
      "1920": 4597,
      "affected": 4598,
      "elling": 4599,
      "science": 4600,
      "izing": 4601,
      "pret": 4602,
      "color": 4603,
      "county": 4604,
      "elected": 4605,
      "lane": 4606,
      "background": 4607,
      "protein": 4608,
      "Commun": 4609,
      "frag": 4610,
      "peaked": 4611,
      "accepted": 4612,
      "Smith": 4613,
      "Bowl": 4614,
      "Italian": 4615,
      "Washington": 4616,
      "96": 4617,
      "Games": 4618,
      "Greek": 4619,
      "Hib": 4620,
      "Jim": 4621,
      "Ly": 4622,
      "Mountain": 4623,
      "Rob": 4624,
      "Ven": 4625,
      "pul": 4626,
      "spl": 4627,
      "sales": 4628,
      "sense": 4629,
      "winter": 4630,
      "wild": 4631,
      "onom": 4632,
      "utch": 4633,
      "excl": 4634,
      "manufact": 4635,
      "boat": 4636,
      "ultural": 4637,
      "rupt": 4638,
      "anger": 4639,
      "transl": 4640,
      "describes": 4641,
      "services": 4642,
      "passes": 4643,
      "attacked": 4644,
      "Manchester": 4645,
      "royal": 4646,
      "says": 4647,
      "activities": 4648,
      "Cambod": 4649,
      "horse": 4650,
      "Ceres": 4651,
      "incorpor": 4652,
      "78": 4653,
      "Ben": 4654,
      "Er": 4655,
      "Hy": 4656,
      "SR": 4657,
      "bing": 4658,
      "kare": 4659,
      "oil": 4660,
      "thous": 4661,
      "removed": 4662,
      "armed": 4663,
      "ionally": 4664,
      "ental": 4665,
      "older": 4666,
      "union": 4667,
      "astic": 4668,
      "ips": 4669,
      "serve": 4670,
      "preser": 4671,
      "Through": 4672,
      "phen": 4673,
      "normal": 4674,
      "Engine": 4675,
      "Edward": 4676,
      "pursu": 4677,
      "primarily": 4678,
      "sources": 4679,
      "trees": 4680,
      "meeting": 4681,
      "immediately": 4682,
      "Abu": 4683,
      "tailed": 4684,
      "ada": 4685,
      "ado": 4686,
      "becomes": 4687,
      "lys": 4688,
      "trib": 4689,
      "180": 4690,
      "regions": 4691,
      "carry": 4692,
      "headquarters": 4693,
      "titles": 4694,
      "continues": 4695,
      "Francis": 4696,
      "Helms": 4697,
      "revealed": 4698,
      "houses": 4699,
      "strength": 4700,
      "Mosley": 4701,
      "Sarnia": 4702,
      "Court": 4703,
      "41": 4704,
      "Ari": 4705,
      "Jul": 4706,
      "Pet": 4707,
      "Sil": 4708,
      "ban": 4709,
      "cake": 4710,
      "fast": 4711,
      "mind": 4712,
      "repe": 4713,
      "oft": 4714,
      "true": 4715,
      "akapo": 4716,
      "managed": 4717,
      "princ": 4718,
      "attended": 4719,
      "seasons": 4720,
      "door": 4721,
      "captain": 4722,
      "Johnson": 4723,
      "shortly": 4724,
      "faced": 4725,
      "attempted": 4726,
      "Eastern": 4727,
      "Histor": 4728,
      "Louis": 4729,
      "Alex": 4730,
      "Cross": 4731,
      "Civil": 4732,
      "Far": 4733,
      "Field": 4734,
      "Hal": 4735,
      "VD": 4736,
      "bour": 4737,
      "crow": 4738,
      "ta": 4739,
      "wear": 4740,
      "inary": 4741,
      "restr": 4742,
      "iced": 4743,
      "ications": 4744,
      "seek": 4745,
      "mod": 4746,
      "spread": 4747,
      "relatively": 4748,
      "cannot": 4749,
      "struck": 4750,
      "Department": 4751,
      "cerem": 4752,
      "letters": 4753,
      "1960s": 4754,
      "1947": 4755,
      "Force": 4756,
      "Fey": 4757,
      "Class": 4758,
      "contrast": 4759,
      "graphic": 4760,
      "historical": 4761,
      "divided": 4762,
      "Apple": 4763,
      "dedicated": 4764,
      "antimony": 4765,
      "54": 4766,
      "Cre": 4767,
      "Fred": 4768,
      "Jour": 4769,
      "Lis": 4770,
      "Lew": 4771,
      "Mah": 4772,
      "Turn": 4773,
      "Tele": 4774,
      "Young": 4775,
      "border": 4776,
      "cies": 4777,
      "dut": 4778,
      "spring": 4779,
      "isions": 4780,
      "chair": 4781,
      "chief": 4782,
      "ulated": 4783,
      "expressed": 4784,
      "ellig": 4785,
      "offered": 4786,
      "Though": 4787,
      "render": 4788,
      "creation": 4789,
      "weaken": 4790,
      "themes": 4791,
      "charge": 4792,
      "1972": 4793,
      "hands": 4794,
      "Andrew": 4795,
      "borough": 4796,
      "words": 4797,
      "square": 4798,
      "attribut": 4799,
      "Review": 4800,
      "Croat": 4801,
      "Joseph": 4802,
      "6th": 4803,
      "Home": 4804,
      "RE": 4805,
      "ii": 4806,
      "sn": 4807,
      "sister": 4808,
      "youn": 4809,
      "ingu": 4810,
      "height": 4811,
      "iva": 4812,
      "igr": 4813,
      "ety": 4814,
      "oph": 4815,
      "mosp": 4816,
      "sust": 4817,
      "artists": 4818,
      "Chap": 4819,
      "intellig": 4820,
      "1987": 4821,
      "movie": 4822,
      "commander": 4823,
      "Polish": 4824,
      "connected": 4825,
      "transferred": 4826,
      "Records": 4827,
      "enjoy": 4828,
      "Fleet": 4829,
      "Mass": 4830,
      "Pit": 4831,
      "Ret": 4832,
      "cam": 4833,
      "fear": 4834,
      "gam": 4835,
      "girl": 4836,
      "hu": 4837,
      "hill": 4838,
      "hour": 4839,
      "mom": 4840,
      "mir": 4841,
      "paid": 4842,
      "tav": 4843,
      "uzz": 4844,
      "energy": 4845,
      "esh": 4846,
      "toward": 4847,
      "chor": 4848,
      "berg": 4849,
      "awa": 4850,
      "award": 4851,
      "izes": 4852,
      "conditions": 4853,
      "foreign": 4854,
      "Secret": 4855,
      "something": 4856,
      "albums": 4857,
      "direction": 4858,
      "1964": 4859,
      "Group": 4860,
      "passing": 4861,
      "asket": 4862,
      "sites": 4863,
      "currently": 4864,
      "Djed": 4865,
      "Thunderbirds": 4866,
      "maximum": 4867,
      "95": 4868,
      "Fr": 4869,
      "Horn": 4870,
      "Ka": 4871,
      "Kent": 4872,
      "Lar": 4873,
      "Tu": 4874,
      "Tod": 4875,
      "brown": 4876,
      "cers": 4877,
      "glo": 4878,
      "sac": 4879,
      "revol": 4880,
      "atmosp": 4881,
      "adel": 4882,
      "detail": 4883,
      "concent": 4884,
      "agan": 4885,
      "emic": 4886,
      "Ali": 4887,
      "guest": 4888,
      "raid": 4889,
      "Assembly": 4890,
      "strugg": 4891,
      "specim": 4892,
      "Constant": 4893,
      "pedo": 4894,
      "resulting": 4895,
      "grew": 4896,
      "sky": 4897,
      "buried": 4898,
      "represented": 4899,
      "planet": 4900,
      "capture": 4901,
      "combined": 4902,
      "behav": 4903,
      "honor": 4904,
      "Cardiff": 4905,
      "Vietnam": 4906,
      "commented": 4907,
      "risk": 4908,
      "question": 4909,
      "impact": 4910,
      "journal": 4911,
      "Djedkare": 4912,
      "Ath": 4913,
      "DVD": 4914,
      "Four": 4915,
      "Public": 4916,
      "Ry": 4917,
      "cé": 4918,
      "mical": 4919,
      "rush": 4920,
      "tun": 4921,
      "environ": 4922,
      "ils": 4923,
      "iles": 4924,
      "deg": 4925,
      "extra": 4926,
      "efforts": 4927,
      "1985": 4928,
      "places": 4929,
      "northwest": 4930,
      "results": 4931,
      "reports": 4932,
      "society": 4933,
      "battles": 4934,
      "street": 4935,
      "Walpole": 4936,
      "debuted": 4937,
      "spirit": 4938,
      "ricket": 4939,
      "temperature": 4940,
      "casualties": 4941,
      "Government": 4942,
      "64": 4943,
      "AC": 4944,
      "AML": 4945,
      "Kar": 4946,
      "Mat": 4947,
      "Tay": 4948,
      "hang": 4949,
      "iate": 4950,
      "wave": 4951,
      "ero": 4952,
      "encour": 4953,
      "isl": 4954,
      "tery": 4955,
      "opin": 4956,
      "umber": 4957,
      "peror": 4958,
      "ieval": 4959,
      "grass": 4960,
      "diss": 4961,
      "aired": 4962,
      "1989": 4963,
      "identified": 4964,
      "restaur": 4965,
      "depth": 4966,
      "officer": 4967,
      "advance": 4968,
      "cases": 4969,
      "rights": 4970,
      "influenced": 4971,
      "earliest": 4972,
      "individuals": 4973,
      "practice": 4974,
      "onymous": 4975,
      "conflict": 4976,
      "slightly": 4977,
      "Sum": 4978,
      "Ul": 4979,
      "ares": 4980,
      "pup": 4981,
      "wound": 4982,
      "aling": 4983,
      "conver": 4984,
      "shape": 4985,
      "perman": 4986,
      "iana": 4987,
      "scale": 4988,
      "kept": 4989,
      "Ann": 4990,
      "phy": 4991,
      "1990s": 4992,
      "icks": 4993,
      "vised": 4994,
      "visited": 4995,
      "viewers": 4996,
      "ologist": 4997,
      "student": 4998,
      "Before": 4999,
      "roll": 5000,
      "officially": 5001,
      "commonly": 5002,
      "Add": 5003,
      "reference": 5004,
      "strike": 5005,
      "begin": 5006,
      "structures": 5007,
      "combat": 5008,
      "arent": 5009,
      "torpedo": 5010,
      "Congress": 5011,
      "situation": 5012,
      "settlement": 5013,
      "65": 5014,
      "BBC": 5015,
      "Fant": 5016,
      "HMS": 5017,
      "Pop": 5018,
      "bishop": 5019,
      "greg": 5020,
      "lives": 5021,
      "ole": 5022,
      "paint": 5023,
      "sand": 5024,
      "wise": 5025,
      "thir": 5026,
      "reme": 5027,
      "recomm": 5028,
      "else": 5029,
      "confir": 5030,
      "tribut": 5031,
      "estic": 5032,
      "Independ": 5033,
      "Institute": 5034,
      "extr": 5035,
      "twice": 5036,
      "18th": 5037,
      "Album": 5038,
      "mechan": 5039,
      "colony": 5040,
      "suppl": 5041,
      "1960": 5042,
      "fields": 5043,
      "titled": 5044,
      "systems": 5045,
      "Mean": 5046,
      "declared": 5047,
      "ruli": 5048,
      "excav": 5049,
      "kilomet": 5050,
      "Angeles": 5051,
      "ceeded": 5052,
      "Production": 5053,
      "narrow": 5054,
      "Der": 5055,
      "Gall": 5056,
      "More": 5057,
      "Si": 5058,
      "UN": 5059,
      "bat": 5060,
      "bul": 5061,
      "drew": 5062,
      "fle": 5063,
      "gained": 5064,
      "hospital": 5065,
      "ror": 5066,
      "rig": 5067,
      "your": 5068,
      "instr": 5069,
      "ont": 5070,
      "andid": 5071,
      "lection": 5072,
      "acad": 5073,
      "aine": 5074,
      "propos": 5075,
      "share": 5076,
      "artic": 5077,
      "artillery": 5078,
      "speak": 5079,
      "End": 5080,
      "Def": 5081,
      "hell": 5082,
      "Mario": 5083,
      "description": 5084,
      "showed": 5085,
      "vessel": 5086,
      "campus": 5087,
      "controlled": 5088,
      "refused": 5089,
      "levels": 5090,
      "basis": 5091,
      "holds": 5092,
      "authorities": 5093,
      "growing": 5094,
      "Captain": 5095,
      "failure": 5096,
      "surrounding": 5097,
      "Squadron": 5098,
      "determined": 5099,
      "degree": 5100,
      "Dun": 5101,
      "Good": 5102,
      "Lev": 5103,
      "Never": 5104,
      "Rih": 5105,
      "fres": 5106,
      "males": 5107,
      "nur": 5108,
      "pack": 5109,
      "smo": 5110,
      "inet": 5111,
      "tomb": 5112,
      "icts": 5113,
      "seem": 5114,
      "agric": 5115,
      "tried": 5116,
      "shore": 5117,
      "osen": 5118,
      "assault": 5119,
      "Stan": 5120,
      "rance": 5121,
      "condition": 5122,
      "ovic": 5123,
      "effort": 5124,
      "1984": 5125,
      "1969": 5126,
      "serving": 5127,
      "leader": 5128,
      "belong": 5129,
      "alongside": 5130,
      "require": 5131,
      "broken": 5132,
      "southeast": 5133,
      "suggests": 5134,
      "scription": 5135,
      "projects": 5136,
      "eye": 5137,
      "knowledge": 5138,
      "Develop": 5139,
      "Jamal": 5140,
      "Rihanna": 5141,
      "43": 5142,
      "66": 5143,
      "Bre": 5144,
      "Due": 5145,
      "Hun": 5146,
      "Kir": 5147,
      "Lock": 5148,
      "Sub": 5149,
      "catch": 5150,
      "ec": 5151,
      "gs": 5152,
      "tur": 5153,
      "inch": 5154,
      "asc": 5155,
      "itan": 5156,
      "deploy": 5157,
      "consecut": 5158,
      "emot": 5159,
      "umn": 5160,
      "bery": 5161,
      "attention": 5162,
      "containing": 5163,
      "spot": 5164,
      "1970s": 5165,
      "advent": 5166,
      "strial": 5167,
      "programs": 5168,
      "animal": 5169,
      "DuMont": 5170,
      "injury": 5171,
      "measure": 5172,
      "individual": 5173,
      "potential": 5174,
      "financial": 5175,
      "symbol": 5176,
      "dissip": 5177,
      "120": 5178,
      "Bir": 5179,
      "Bond": 5180,
      "Fre": 5181,
      "Mu": 5182,
      "Rachel": 5183,
      "Writ": 5184,
      "fict": 5185,
      "federal": 5186,
      "kakapo": 5187,
      "iny": 5188,
      "analysis": 5189,
      "edition": 5190,
      "ora": 5191,
      "depart": 5192,
      "umes": 5193,
      "comedy": 5194,
      "trial": 5195,
      "prove": 5196,
      "rub": 5197,
      "tainment": 5198,
      "simply": 5199,
      "marks": 5200,
      "castle": 5201,
      "apparent": 5202,
      "claims": 5203,
      "Commander": 5204,
      "Simone": 5205,
      "Airport": 5206,
      "rainfall": 5207,
      "participated": 5208,
      "independent": 5209,
      "advantage": 5210,
      "Applewhite": 5211,
      "consecutive": 5212,
      "Igu": 5213,
      "Pre": 5214,
      "Prem": 5215,
      "Sup": 5216,
      "Tint": 5217,
      "dock": 5218,
      "eth": 5219,
      "jack": 5220,
      "lat": 5221,
      "mit": 5222,
      "mitted": 5223,
      "sul": 5224,
      "recon": 5225,
      "reaction": 5226,
      "altar": 5227,
      "esc": 5228,
      "lying": 5229,
      "images": 5230,
      "ocr": 5231,
      "twenty": 5232,
      "oured": 5233,
      "Italy": 5234,
      "phia": 5235,
      "Once": 5236,
      "element": 5237,
      "Conf": 5238,
      "1974": 5239,
      "possibly": 5240,
      "Evita": 5241,
      "label": 5242,
      "animals": 5243,
      "audience": 5244,
      "growth": 5245,
      "flooding": 5246,
      "physical": 5247,
      "Operation": 5248,
      "cougar": 5249,
      "missed": 5250,
      "nucleus": 5251,
      "security": 5252,
      "prominent": 5253,
      "adelphia": 5254,
      "Taylor": 5255,
      "AT": 5256,
      "Big": 5257,
      "Fox": 5258,
      "Greg": 5259,
      "Hell": 5260,
      "Jef": 5261,
      "Nix": 5262,
      "Ox": 5263,
      "Sb": 5264,
      "Ve": 5265,
      "ahead": 5266,
      "bid": 5267,
      "bank": 5268,
      "fair": 5269,
      "iations": 5270,
      "master": 5271,
      "oncé": 5272,
      "replac": 5273,
      "ads": 5274,
      "advert": 5275,
      "shap": 5276,
      "grav": 5277,
      "weather": 5278,
      "drive": 5279,
      "obtain": 5280,
      "Leon": 5281,
      "clean": 5282,
      "hydro": 5283,
      "1940": 5284,
      "organization": 5285,
      "prompt": 5286,
      "versions": 5287,
      "Track": 5288,
      "temple": 5289,
      "demand": 5290,
      "looking": 5291,
      "religion": 5292,
      "soundtrack": 5293,
      "baseball": 5294,
      "Minister": 5295,
      "treatment": 5296,
      "concluded": 5297,
      "losing": 5298,
      "Studios": 5299,
      "1950s": 5300,
      "rapidly": 5301,
      "families": 5302,
      "Beyoncé": 5303,
      "Tintin": 5304,
      "EC": 5305,
      "Festival": 5306,
      "Kil": 5307,
      "Ob": 5308,
      "Qedar": 5309,
      "Rol": 5310,
      "Ross": 5311,
      "cities": 5312,
      "laid": 5313,
      "oen": 5314,
      "push": 5315,
      "ries": 5316,
      "swe": 5317,
      "ena": 5318,
      "imin": 5319,
      "ully": 5320,
      "plat": 5321,
      "alls": 5322,
      "clo": 5323,
      "quake": 5324,
      "Anth": 5325,
      "finals": 5326,
      "newly": 5327,
      "retired": 5328,
      "singles": 5329,
      "1981": 5330,
      "1941": 5331,
      "operated": 5332,
      "famous": 5333,
      "Christmas": 5334,
      "apping": 5335,
      "Boise": 5336,
      "Origin": 5337,
      "successfully": 5338,
      "criticized": 5339,
      "problem": 5340,
      "Revolution": 5341,
      "nominated": 5342,
      "thesis": 5343,
      "Gulf": 5344,
      "benef": 5345,
      "abandoned": 5346,
      "Athlet": 5347,
      "98": 5348,
      "AR": 5349,
      "Ban": 5350,
      "Cle": 5351,
      "Dutch": 5352,
      "Gard": 5353,
      "Kore": 5354,
      "Sat": 5355,
      "gn": 5356,
      "museum": 5357,
      "mounted": 5358,
      "rating": 5359,
      "uct": 5360,
      "vation": 5361,
      "vement": 5362,
      "theory": 5363,
      "eda": 5364,
      "alone": 5365,
      "accompan": 5366,
      "adapt": 5367,
      "oldest": 5368,
      "unknown": 5369,
      "ager": 5370,
      "1919": 5371,
      "1918": 5372,
      "apart": 5373,
      "content": 5374,
      "Arm": 5375,
      "sell": 5376,
      "submar": 5377,
      "parliament": 5378,
      "Conference": 5379,
      "calling": 5380,
      "servation": 5381,
      "returning": 5382,
      "1952": 5383,
      "pitched": 5384,
      "defensive": 5385,
      "Andy": 5386,
      "popularity": 5387,
      "authority": 5388,
      "females": 5389,
      "Valley": 5390,
      "economic": 5391,
      "Baby": 5392,
      "necessary": 5393,
      "61": 5394,
      "94": 5395,
      "Jon": 5396,
      "Life": 5397,
      "Pers": 5398,
      "Patt": 5399,
      "Ray": 5400,
      "Rail": 5401,
      "Vi": 5402,
      "Zhou": 5403,
      "athen": 5404,
      "dan": 5405,
      "án": 5406,
      "inem": 5407,
      "itness": 5408,
      "cher": 5409,
      "ura": 5410,
      "iments": 5411,
      "ests": 5412,
      "Child": 5413,
      "actors": 5414,
      "computer": 5415,
      "symp": 5416,
      "insula": 5417,
      "ifications": 5418,
      "address": 5419,
      "1973": 5420,
      "1968": 5421,
      "steam": 5422,
      "Prov": 5423,
      "collected": 5424,
      "volume": 5425,
      "historic": 5426,
      "historian": 5427,
      "Michigan": 5428,
      "Cardinal": 5429,
      "Philadelphia": 5430,
      "Torres": 5431,
      "strengthen": 5432,
      "Braathen": 5433,
      "advanced": 5434,
      "kilometres": 5435,
      "Iguan": 5436,
      "600": 5437,
      "77": 5438,
      "DS": 5439,
      "Es": 5440,
      "Final": 5441,
      "Ken": 5442,
      "Line": 5443,
      "Mic": 5444,
      "NL": 5445,
      "NS": 5446,
      "Naz": 5447,
      "Nathan": 5448,
      "Rog": 5449,
      "Ulys": 5450,
      "dog": 5451,
      "dates": 5452,
      "patter": 5453,
      "tact": 5454,
      "stages": 5455,
      "convent": 5456,
      "oppos": 5457,
      "actually": 5458,
      "lied": 5459,
      "writes": 5460,
      "seconds": 5461,
      "doing": 5462,
      "1965": 5463,
      "headed": 5464,
      "km2": 5465,
      "facilities": 5466,
      "explained": 5467,
      "college": 5468,
      "broke": 5469,
      "reflect": 5470,
      "consisted": 5471,
      "promoted": 5472,
      "ifying": 5473,
      "property": 5474,
      "homes": 5475,
      "maintained": 5476,
      "Georgian": 5477,
      "Brook": 5478,
      "Lewis": 5479,
      "Ulysses": 5480,
      "Blo": 5481,
      "Crown": 5482,
      "Ever": 5483,
      "Each": 5484,
      "Five": 5485,
      "Op": 5486,
      "VN": 5487,
      "WA": 5488,
      "candid": 5489,
      "din": 5490,
      "kes": 5491,
      "wick": 5492,
      "eratops": 5493,
      "leuk": 5494,
      "seas": 5495,
      "usal": 5496,
      "1913": 5497,
      "1914": 5498,
      "emphas": 5499,
      "opposed": 5500,
      "plum": 5501,
      "ocated": 5502,
      "aste": 5503,
      "Chart": 5504,
      "herself": 5505,
      "ranged": 5506,
      "premi": 5507,
      "shell": 5508,
      "News": 5509,
      "1966": 5510,
      "domin": 5511,
      "simple": 5512,
      "Project": 5513,
      "value": 5514,
      "killing": 5515,
      "Muslim": 5516,
      "System": 5517,
      "target": 5518,
      "literature": 5519,
      "silver": 5520,
      "machine": 5521,
      "scholar": 5522,
      "Family": 5523,
      "adopted": 5524,
      "ultimately": 5525,
      "Development": 5526,
      "fictional": 5527,
      "81": 5528,
      "Rod": 5529,
      "basket": 5530,
      "cot": 5531,
      "mast": 5532,
      "rise": 5533,
      "resem": 5534,
      "atus": 5535,
      "stable": 5536,
      "stating": 5537,
      "asure": 5538,
      "isol": 5539,
      "adap": 5540,
      "opt": 5541,
      "ichol": 5542,
      "itsune": 5543,
      "ogy": 5544,
      "izations": 5545,
      "ween": 5546,
      "1980": 5547,
      "rossing": 5548,
      "1942": 5549,
      "Week": 5550,
      "skin": 5551,
      "management": 5552,
      "experienced": 5553,
      "MacLe": 5554,
      "employed": 5555,
      "urban": 5556,
      "Egyptian": 5557,
      "Brian": 5558,
      "Martin": 5559,
      "schedul": 5560,
      "philos": 5561,
      "Nixon": 5562,
      "Iguanodon": 5563,
      "130": 5564,
      "Av": 5565,
      "Cur": 5566,
      "Cub": 5567,
      "Di": 5568,
      "Even": 5569,
      "IM": 5570,
      "Mod": 5571,
      "NBA": 5572,
      "fat": 5573,
      "gather": 5574,
      "lings": 5575,
      "tack": 5576,
      "repair": 5577,
      "stones": 5578,
      "asion": 5579,
      "acher": 5580,
      "seems": 5581,
      "chosen": 5582,
      "dev": 5583,
      "agement": 5584,
      "aved": 5585,
      "istan": 5586,
      "prising": 5587,
      "Stadium": 5588,
      "compar": 5589,
      "bra": 5590,
      "ails": 5591,
      "tension": 5592,
      "Only": 5593,
      "medical": 5594,
      "therefore": 5595,
      "decades": 5596,
      "causing": 5597,
      "USA": 5598,
      "classified": 5599,
      "reaching": 5600,
      "humans": 5601,
      "Phill": 5602,
      "Songs": 5603,
      "significantly": 5604,
      "accident": 5605,
      "violence": 5606,
      "dropped": 5607,
      "increasingly": 5608,
      "prepared": 5609,
      "Scottish": 5610,
      "granted": 5611,
      "Haiti": 5612,
      "battery": 5613,
      "Between": 5614,
      "Meanwhile": 5615,
      "59": 5616,
      "Down": 5617,
      "Fer": 5618,
      "Han": 5619,
      "Haven": 5620,
      "IV": 5621,
      "Mul": 5622,
      "Night": 5623,
      "Nichol": 5624,
      "Rel": 5625,
      "dial": 5626,
      "eigh": 5627,
      "fare": 5628,
      "fix": 5629,
      "lb": 5630,
      "pal": 5631,
      "sens": 5632,
      "ini": 5633,
      "theless": 5634,
      "rear": 5635,
      "stood": 5636,
      "inger": 5637,
      "ented": 5638,
      "sections": 5639,
      "urs": 5640,
      "Theatre": 5641,
      "oppon": 5642,
      "train": 5643,
      "ria": 5644,
      "ella": 5645,
      "ached": 5646,
      "desc": 5647,
      "loy": 5648,
      "crete": 5649,
      "council": 5650,
      "Short": 5651,
      "supply": 5652,
      "longest": 5653,
      "1944": 5654,
      "roads": 5655,
      "starts": 5656,
      "Juan": 5657,
      "domestic": 5658,
      "plement": 5659,
      "publication": 5660,
      "faces": 5661,
      "solo": 5662,
      "burg": 5663,
      "entirely": 5664,
      "sports": 5665,
      "walls": 5666,
      "victim": 5667,
      "Critical": 5668,
      "Horse": 5669,
      "confirmed": 5670,
      "250": 5671,
      "4th": 5672,
      "CD": 5673,
      "Chel": 5674,
      "Dest": 5675,
      "Gab": 5676,
      "Mun": 5677,
      "Sen": 5678,
      "bud": 5679,
      "fil": 5680,
      "gres": 5681,
      "lit": 5682,
      "matter": 5683,
      "pict": 5684,
      "tree": 5685,
      "yson": 5686,
      "thur": 5687,
      "arrest": 5688,
      "beach": 5689,
      "improved": 5690,
      "ider": 5691,
      "avoid": 5692,
      "rian": 5693,
      "illo": 5694,
      "assass": 5695,
      "presents": 5696,
      "guard": 5697,
      "Arthur": 5698,
      "angers": 5699,
      "filmed": 5700,
      "selling": 5701,
      "myth": 5702,
      "innings": 5703,
      "paralle": 5704,
      "letter": 5705,
      "1975": 5706,
      "pedition": 5707,
      "heads": 5708,
      "legisl": 5709,
      "Plot": 5710,
      "delay": 5711,
      "Coast": 5712,
      "effective": 5713,
      "seventh": 5714,
      "massive": 5715,
      "agreement": 5716,
      "namese": 5717,
      "Strand": 5718,
      "Vietnamese": 5719,
      "faith": 5720,
      "frequently": 5721,
      "Tennyson": 5722,
      "policy": 5723,
      "purchased": 5724,
      "52": 5725,
      "Gord": 5726,
      "Hard": 5727,
      "OT": 5728,
      "Tim": 5729,
      "iqu": 5730,
      "psy": 5731,
      "rural": 5732,
      "stret": 5733,
      "alleg": 5734,
      "itable": 5735,
      "lywood": 5736,
      "improv": 5737,
      "unte": 5738,
      "ulate": 5739,
      "uten": 5740,
      "asty": 5741,
      "astron": 5742,
      "perfect": 5743,
      "udes": 5744,
      "awards": 5745,
      "Albert": 5746,
      "centuries": 5747,
      "collap": 5748,
      "minim": 5749,
      "producers": 5750,
      "visual": 5751,
      "consists": 5752,
      "secondary": 5753,
      "Shiva": 5754,
      "Bridge": 5755,
      "supporting": 5756,
      "deaths": 5757,
      "Stew": 5758,
      "Phoen": 5759,
      "belief": 5760,
      "Moz": 5761,
      "declined": 5762,
      "purpose": 5763,
      "independence": 5764,
      "focus": 5765,
      "multiple": 5766,
      "phase": 5767,
      "bottom": 5768,
      "equipment": 5769,
      "Forest": 5770,
      "Radio": 5771,
      "District": 5772,
      "Skye": 5773,
      "Addition": 5774,
      "MacLeod": 5775,
      "79": 5776,
      "7th": 5777,
      "Bul": 5778,
      "Dubl": 5779,
      "Domin": 5780,
      "Fish": 5781,
      "Mike": 5782,
      "Mounted": 5783,
      "Ru": 5784,
      "cust": 5785,
      "dress": 5786,
      "fought": 5787,
      "haps": 5788,
      "mess": 5789,
      "rab": 5790,
      "rival": 5791,
      "ancy": 5792,
      "enemy": 5793,
      "arms": 5794,
      "aser": 5795,
      "hem": 5796,
      "aced": 5797,
      "entrance": 5798,
      "unique": 5799,
      "usual": 5800,
      "ote": 5801,
      "resc": 5802,
      "notable": 5803,
      "attend": 5804,
      "recently": 5805,
      "interior": 5806,
      "gency": 5807,
      "singing": 5808,
      "Maria": 5809,
      "provides": 5810,
      "ashion": 5811,
      "breeding": 5812,
      "allows": 5813,
      "remix": 5814,
      "Steve": 5815,
      "join": 5816,
      "green": 5817,
      "composition": 5818,
      "recognized": 5819,
      "voted": 5820,
      "habitat": 5821,
      "occupied": 5822,
      "Olympic": 5823,
      "Temple": 5824,
      "McCall": 5825,
      "website": 5826,
      "exclus": 5827,
      "sustained": 5828,
      "moment": 5829,
      "Oxford": 5830,
      "Braathens": 5831,
      "Dublin": 5832,
      "Hon": 5833,
      "Jif": 5834,
      "Raf": 5835,
      "Video": 5836,
      "aire": 5837,
      "die": 5838,
      "ez": 5839,
      "hired": 5840,
      "nie": 5841,
      "rates": 5842,
      "sought": 5843,
      "til": 5844,
      "ya": 5845,
      "anth": 5846,
      "imag": 5847,
      "agent": 5848,
      "prot": 5849,
      "mann": 5850,
      "earch": 5851,
      "owners": 5852,
      "ideas": 5853,
      "worship": 5854,
      "offense": 5855,
      "ansas": 5856,
      "rence": 5857,
      "airport": 5858,
      "regarded": 5859,
      "Americans": 5860,
      "lock": 5861,
      "ropium": 5862,
      "1946": 5863,
      "Gram": 5864,
      "passeng": 5865,
      "ficient": 5866,
      "battalion": 5867,
      "technique": 5868,
      "Upon": 5869,
      "executive": 5870,
      "athletes": 5871,
      "tribes": 5872,
      "wounded": 5873,
      "accompanied": 5874,
      "700": 5875,
      "8th": 5876,
      "Cru": 5877,
      "Ele": 5878,
      "GA": 5879,
      "IS": 5880,
      "Jud": 5881,
      "Pan": 5882,
      "Well": 5883,
      "mort": 5884,
      "rif": 5885,
      "institut": 5886,
      "editor": 5887,
      "rejected": 5888,
      "ati": 5889,
      "rose": 5890,
      "lease": 5891,
      "aments": 5892,
      "chose": 5893,
      "uration": 5894,
      "decre": 5895,
      "aret": 5896,
      "outs": 5897,
      "intend": 5898,
      "Head": 5899,
      "weak": 5900,
      "speaking": 5901,
      "prefer": 5902,
      "finish": 5903,
      "filming": 5904,
      "ictions": 5905,
      "extensive": 5906,
      "iverse": 5907,
      "mush": 5908,
      "1971": 5909,
      "serves": 5910,
      "azz": 5911,
      "Columb": 5912,
      "officials": 5913,
      "defence": 5914,
      "frame": 5915,
      "Maeda": 5916,
      "glass": 5917,
      "eyes": 5918,
      "technology": 5919,
      "Montana": 5920,
      "Among": 5921,
      "launch": 5922,
      "PlayStation": 5923,
      "layer": 5924,
      "pieces": 5925,
      "contributed": 5926,
      "weapons": 5927,
      "Hibari": 5928,
      "Anthony": 5929,
      "800": 5930,
      "Bor": 5931,
      "Bell": 5932,
      "Bern": 5933,
      "Broad": 5934,
      "Kh": 5935,
      "Master": 5936,
      "Por": 5937,
      "Snow": 5938,
      "Vol": 5939,
      "cit": 5940,
      "dating": 5941,
      "ech": 5942,
      "gor": 5943,
      "mine": 5944,
      "rated": 5945,
      "sort": 5946,
      "table": 5947,
      "virt": 5948,
      "infantry": 5949,
      "outer": 5950,
      "heard": 5951,
      "etic": 5952,
      "dub": 5953,
      "fired": 5954,
      "scar": 5955,
      "spons": 5956,
      "spacing": 5957,
      "disc": 5958,
      "disp": 5959,
      "creating": 5960,
      "ampions": 5961,
      "flank": 5962,
      "count": 5963,
      "12th": 5964,
      "1963": 5965,
      "transit": 5966,
      "decade": 5967,
      "providing": 5968,
      "distingu": 5969,
      "Clark": 5970,
      "possibility": 5971,
      "sentence": 5972,
      "solid": 5973,
      "Commission": 5974,
      "Team": 5975,
      "competitions": 5976,
      "finds": 5977,
      "occurs": 5978,
      "BCE": 5979,
      "floor": 5980,
      "gradually": 5981,
      "Somal": 5982,
      "tells": 5983,
      "Golden": 5984,
      "occasionally": 5985,
      "Brien": 5986,
      "Gully": 5987,
      "championship": 5988,
      "1930s": 5989,
      "filled": 5990,
      "Rosebery": 5991,
      "couple": 5992,
      "Hornung": 5993,
      "Kilmer": 5994,
      "Jifna": 5995,
      "AD": 5996,
      "AP": 5997,
      "Aer": 5998,
      "Avenue": 5999,
      "Bed": 6000,
      "Cold": 6001,
      "Jos": 6002,
      "Men": 6003,
      "Nat": 6004,
      "Person": 6005,
      "Sus": 6006,
      "Wall": 6007,
      "Yue": 6008,
      "dream": 6009,
      "gives": 6010,
      "rine": 6011,
      "vens": 6012,
      "stations": 6013,
      "roof": 6014,
      "semi": 6015,
      "bean": 6016,
      "irls": 6017,
      "versy": 6018,
      "1917": 6019,
      "shark": 6020,
      "derived": 6021,
      "contained": 6022,
      "renamed": 6023,
      "draft": 6024,
      "miner": 6025,
      "160": 6026,
      "16th": 6027,
      "medieval": 6028,
      "17th": 6029,
      "1982": 6030,
      "1976": 6031,
      "Guard": 6032,
      "personnel": 6033,
      "remn": 6034,
      "believe": 6035,
      "People": 6036,
      "Simon": 6037,
      "penalty": 6038,
      "survived": 6039,
      "Swed": 6040,
      "distribution": 6041,
      "intensity": 6042,
      "Venus": 6043,
      "revolution": 6044,
      "atmosphere": 6045,
      "Constantine": 6046,
      "adapted": 6047,
      "Chelsea": 6048,
      "58": 6049,
      "71": 6050,
      "72": 6051,
      "Bas": 6052,
      "Den": 6053,
      "Det": 6054,
      "DNA": 6055,
      "ERA": 6056,
      "Gil": 6057,
      "Link": 6058,
      "Mur": 6059,
      "Rome": 6060,
      "ao": 6061,
      "categ": 6062,
      "gian": 6063,
      "ju": 6064,
      "kg": 6065,
      "tend": 6066,
      "task": 6067,
      "ía": 6068,
      "ange": 6069,
      "sty": 6070,
      "acid": 6071,
      "entry": 6072,
      "univers": 6073,
      "concrete": 6074,
      "agents": 6075,
      "istol": 6076,
      "iful": 6077,
      "rie": 6078,
      "actress": 6079,
      "landfall": 6080,
      "attle": 6081,
      "aug": 6082,
      "ansion": 6083,
      "dram": 6084,
      "Arts": 6085,
      "orses": 6086,
      "Rober": 6087,
      "appearing": 6088,
      "issipp": 6089,
      "arrison": 6090,
      "fung": 6091,
      "aurus": 6092,
      "defend": 6093,
      "Board": 6094,
      "Charlie": 6095,
      "drawn": 6096,
      "finding": 6097,
      "Mississipp": 6098,
      "Arabic": 6099,
      "Maryland": 6100,
      "learned": 6101,
      "argued": 6102,
      "populations": 6103,
      "hundred": 6104,
      "paintings": 6105,
      "fresh": 6106,
      "Aston": 6107,
      "Bost": 6108,
      "CE": 6109,
      "Dream": 6110,
      "Gar": 6111,
      "Homer": 6112,
      "Mot": 6113,
      "Ron": 6114,
      "Sap": 6115,
      "bone": 6116,
      "bran": 6117,
      "knot": 6118,
      "kins": 6119,
      "mut": 6120,
      "nav": 6121,
      "rey": 6122,
      "ala": 6123,
      "itage": 6124,
      "entially": 6125,
      "seat": 6126,
      "advis": 6127,
      "chi": 6128,
      "conve": 6129,
      "agas": 6130,
      "ables": 6131,
      "negot": 6132,
      "udd": 6133,
      "iang": 6134,
      "elli": 6135,
      "Alan": 6136,
      "ibbean": 6137,
      "nov": 6138,
      "drug": 6139,
      "flag": 6140,
      "rows": 6141,
      "Asia": 6142,
      "1967": 6143,
      "Marl": 6144,
      "invasion": 6145,
      "Caribbean": 6146,
      "district": 6147,
      "deliver": 6148,
      "1956": 6149,
      "references": 6150,
      "industrial": 6151,
      "Romani": 6152,
      "Palmy": 6153,
      "typical": 6154,
      "settlers": 6155,
      "existing": 6156,
      "flying": 6157,
      "convoy": 6158,
      "credited": 6159,
      "earthquake": 6160,
      "briefly": 6161,
      "Further": 6162,
      "secure": 6163,
      "Throughout": 6164,
      "Lisa": 6165,
      "Today": 6166,
      "Gordon": 6167,
      "Mozamb": 6168,
      "99": 6169,
      "BS": 6170,
      "Bishop": 6171,
      "DA": 6172,
      "Jun": 6173,
      "Kel": 6174,
      "SC": 6175,
      "Santa": 6176,
      "Vill": 6177,
      "aer": 6178,
      "card": 6179,
      "cricket": 6180,
      "daily": 6181,
      "fit": 6182,
      "mate": 6183,
      "sist": 6184,
      "tie": 6185,
      "āda": 6186,
      "inity": 6187,
      "thew": 6188,
      "reput": 6189,
      "atom": 6190,
      "alph": 6191,
      "icate": 6192,
      "ician": 6193,
      "acity": 6194,
      "begun": 6195,
      "deities": 6196,
      "ctors": 6197,
      "emia": 6198,
      "trou": 6199,
      "compon": 6200,
      "contest": 6201,
      "shel": 6202,
      "news": 6203,
      "ceratops": 6204,
      "1945": 6205,
      "opera": 6206,
      "dominated": 6207,
      "southwest": 6208,
      "combination": 6209,
      "patrol": 6210,
      "Research": 6211,
      "economy": 6212,
      "stopped": 6213,
      "Daniel": 6214,
      "Turk": 6215,
      "Industry": 6216,
      "straight": 6217,
      "brigade": 6218,
      "Premier": 6219,
      "scheduled": 6220,
      "Mississippi": 6221,
      "Adams": 6222,
      "Mel": 6223,
      "Mort": 6224,
      "bie": 6225,
      "branch": 6226,
      "cited": 6227,
      "fold": 6228,
      "gie": 6229,
      "ias": 6230,
      "jac": 6231,
      "nell": 6232,
      "ram": 6233,
      "sail": 6234,
      "anes": 6235,
      "edding": 6236,
      "stal": 6237,
      "stic": 6238,
      "itors": 6239,
      "igration": 6240,
      "1916": 6241,
      "apers": 6242,
      "comic": 6243,
      "plain": 6244,
      "trip": 6245,
      "moves": 6246,
      "neck": 6247,
      "note": 6248,
      "desire": 6249,
      "cool": 6250,
      "visible": 6251,
      "Depression": 6252,
      "publish": 6253,
      "foundation": 6254,
      "Norman": 6255,
      "1978": 6256,
      "Beach": 6257,
      "cycle": 6258,
      "depicted": 6259,
      "receiving": 6260,
      "chemical": 6261,
      "valley": 6262,
      "kills": 6263,
      "Stevens": 6264,
      "importance": 6265,
      "wooden": 6266,
      "novels": 6267,
      "closely": 6268,
      "Williams": 6269,
      "demol": 6270,
      "existence": 6271,
      "Jersey": 6272,
      "subsequent": 6273,
      "watched": 6274,
      "responded": 6275,
      "scholars": 6276,
      "Transport": 6277,
      "portrayed": 6278,
      "vehicles": 6279,
      "opportunity": 6280,
      "restaurant": 6281,
      "Summer": 6282,
      "shaped": 6283,
      "institutions": 6284,
      "Bru": 6285,
      "FE": 6286,
      "Fire": 6287,
      "Fair": 6288,
      "Kur": 6289,
      "Lie": 6290,
      "Native": 6291,
      "Ros": 6292,
      "Top": 6293,
      "WW": 6294,
      "Ye": 6295,
      "Yan": 6296,
      "gets": 6297,
      "hall": 6298,
      "kitsune": 6299,
      "lic": 6300,
      "races": 6301,
      "tall": 6302,
      "ture": 6303,
      "von": 6304,
      "vary": 6305,
      "inspir": 6306,
      "thetic": 6307,
      "ona": 6308,
      "stell": 6309,
      "anda": 6310,
      "items": 6311,
      "rooms": 6312,
      "leaves": 6313,
      "acu": 6314,
      "acres": 6315,
      "accur": 6316,
      "beaut": 6317,
      "agu": 6318,
      "agen": 6319,
      "oted": 6320,
      "resident": 6321,
      "neither": 6322,
      "perial": 6323,
      "iance": 6324,
      "Stone": 6325,
      "fection": 6326,
      "awn": 6327,
      "contact": 6328,
      "formal": 6329,
      "intersection": 6330,
      "minister": 6331,
      "rug": 6332,
      "setting": 6333,
      "charges": 6334,
      "substant": 6335,
      "viewed": 6336,
      "developing": 6337,
      "warm": 6338,
      "issance": 6339,
      "grapher": 6340,
      "incident": 6341,
      "1954": 6342,
      "worldwide": 6343,
      "magn": 6344,
      "clubs": 6345,
      "electric": 6346,
      "Jerusal": 6347,
      "recognition": 6348,
      "susp": 6349,
      "Simpsons": 6350,
      "Area": 6351,
      "expanded": 6352,
      "aspects": 6353,
      "Cambodia": 6354,
      "intelligence": 6355,
      "Leonard": 6356,
      "budget": 6357,
      "Boston": 6358,
      "Turkish": 6359,
      "Jerusalem": 6360,
      "85": 6361,
      "89": 6362,
      "Bron": 6363,
      "Free": 6364,
      "Governor": 6365,
      "Jain": 6366,
      "Kat": 6367,
      "Lin": 6368,
      "Mov": 6369,
      "Sk": 6370,
      "Ton": 6371,
      "abe": 6372,
      "cos": 6373,
      "egg": 6374,
      "ography": 6375,
      "san": 6376,
      "ule": 6377,
      "ying": 6378,
      "zo": 6379,
      "intr": 6380,
      "orb": 6381,
      "arrang": 6382,
      "assem": 6383,
      "iring": 6384,
      "1915": 6385,
      "truth": 6386,
      "exh": 6387,
      "aked": 6388,
      "compounds": 6389,
      "offman": 6390,
      "mont": 6391,
      "nothing": 6392,
      "finishing": 6393,
      "Recording": 6394,
      "What": 6395,
      "locations": 6396,
      "extrem": 6397,
      "highlight": 6398,
      "1979": 6399,
      "invited": 6400,
      "successor": 6401,
      "Plunk": 6402,
      "towns": 6403,
      "lasted": 6404,
      "protect": 6405,
      "1939": 6406,
      "commanded": 6407,
      "Descri": 6408,
      "Liber": 6409,
      "graded": 6410,
      "destroyers": 6411,
      "criticism": 6412,
      "favour": 6413,
      "separated": 6414,
      "painting": 6415,
      "multi": 6416,
      "Georgia": 6417,
      "agonist": 6418,
      "biography": 6419,
      "performing": 6420,
      "micro": 6421,
      "forests": 6422,
      "teaching": 6423,
      "documentary": 6424,
      "methods": 6425,
      "neighbor": 6426,
      "beyond": 6427,
      "challeng": 6428,
      "ceremony": 6429,
      "battleship": 6430,
      "converted": 6431,
      "dissipated": 6432,
      "Roberts": 6433,
      "62": 6434,
      "69": 6435,
      "Bart": 6436,
      "Dar": 6437,
      "Hart": 6438,
      "Less": 6439,
      "Pul": 6440,
      "Tal": 6441,
      "Tel": 6442,
      "Wic": 6443,
      "Wim": 6444,
      "crown": 6445,
      "data": 6446,
      "fuel": 6447,
      "fashion": 6448,
      "naval": 6449,
      "wides": 6450,
      "youth": 6451,
      "erick": 6452,
      "repl": 6453,
      "store": 6454,
      "amber": 6455,
      "aded": 6456,
      "ading": 6457,
      "demo": 6458,
      "igins": 6459,
      "agle": 6460,
      "apy": 6461,
      "resist": 6462,
      "utz": 6463,
      "exact": 6464,
      "affect": 6465,
      "ranean": 6466,
      "ulture": 6467,
      "Anonymous": 6468,
      "anything": 6469,
      "oba": 6470,
      "roughly": 6471,
      "capable": 6472,
      "goes": 6473,
      "carbon": 6474,
      "Prote": 6475,
      "funding": 6476,
      "1953": 6477,
      "protection": 6478,
      "protected": 6479,
      "Stephen": 6480,
      "explos": 6481,
      "1936": 6482,
      "communities": 6483,
      "Cole": 6484,
      "temporary": 6485,
      "entering": 6486,
      "basin": 6487,
      "Wilde": 6488,
      "Somali": 6489,
      "prede": 6490,
      "trait": 6491,
      "losses": 6492,
      "motor": 6493,
      "treaty": 6494,
      "blocks": 6495,
      "establishment": 6496,
      "Archae": 6497,
      "colonial": 6498,
      "throwing": 6499,
      "Stock": 6500,
      "Calvert": 6501,
      "archaeological": 6502,
      "Democr": 6503,
      "Russian": 6504,
      "escape": 6505,
      "Journal": 6506,
      "Turner": 6507,
      "weakened": 6508,
      "basketball": 6509,
      "Base": 6510,
      "Bank": 6511,
      "Here": 6512,
      "Hindu": 6513,
      "Jones": 6514,
      "Les": 6515,
      "Loc": 6516,
      "NH": 6517,
      "Nico": 6518,
      "Rangers": 6519,
      "fellow": 6520,
      "ni": 6521,
      "sid": 6522,
      "ān": 6523,
      "atures": 6524,
      "stro": 6525,
      "itled": 6526,
      "acre": 6527,
      "amid": 6528,
      "ola": 6529,
      "agues": 6530,
      "1900": 6531,
      "opposition": 6532,
      "uma": 6533,
      "ounts": 6534,
      "ester": 6535,
      "Init": 6536,
      "Instead": 6537,
      "perhaps": 6538,
      "Chains": 6539,
      "kee": 6540,
      "offers": 6541,
      "pread": 6542,
      "coal": 6543,
      "drama": 6544,
      "ensis": 6545,
      "retire": 6546,
      "soil": 6547,
      "eleven": 6548,
      "severe": 6549,
      "studied": 6550,
      "1961": 6551,
      "Marsh": 6552,
      "arrival": 6553,
      "1951": 6554,
      "greatly": 6555,
      "Similar": 6556,
      "Design": 6557,
      "glas": 6558,
      "treated": 6559,
      "promotion": 6560,
      "Israeli": 6561,
      "rarely": 6562,
      "acquired": 6563,
      "experiment": 6564,
      "Entertainment": 6565,
      "junction": 6566,
      "Douglas": 6567,
      "controversy": 6568,
      "Burns": 6569,
      "Patty": 6570,
      "utenant": 6571,
      "Goffman": 6572,
      "Mit": 6573,
      "Oh": 6574,
      "Row": 6575,
      "Yo": 6576,
      "bought": 6577,
      "fal": 6578,
      "wins": 6579,
      "yo": 6580,
      "thor": 6581,
      "arranged": 6582,
      "oul": 6583,
      "iled": 6584,
      "chance": 6585,
      "chronic": 6586,
      "ivity": 6587,
      "oty": 6588,
      "1912": 6589,
      "emperor": 6590,
      "shared": 6591,
      "pton": 6592,
      "bling": 6593,
      "indig": 6594,
      "monarch": 6595,
      "prey": 6596,
      "10th": 6597,
      "capacity": 6598,
      "supposed": 6599,
      "1977": 6600,
      "designation": 6601,
      "ennon": 6602,
      "didn": 6603,
      "Forces": 6604,
      "turning": 6605,
      "getting": 6606,
      "churches": 6607,
      "authors": 6608,
      "correspond": 6609,
      "expansion": 6610,
      "holding": 6611,
      "introduction": 6612,
      "Maggie": 6613,
      "regularly": 6614,
      "certified": 6615,
      "engineering": 6616,
      "Hollywood": 6617,
      "bledon": 6618,
      "powers": 6619,
      "Oslo": 6620,
      "Palestine": 6621,
      "Argentina": 6622,
      "repeated": 6623,
      "younger": 6624,
      "IMO": 6625,
      "Modern": 6626,
      "knots": 6627,
      "Wimbledon": 6628,
      "63": 6629,
      "Bon": 6630,
      "Bath": 6631,
      "CP": 6632,
      "Hospital": 6633,
      "Jes": 6634,
      "Jane": 6635,
      "Kn": 6636,
      "Run": 6637,
      "Rem": 6638,
      "Sound": 6639,
      "dal": 6640,
      "governor": 6641,
      "iber": 6642,
      "ji": 6643,
      "orer": 6644,
      "isy": 6645,
      "lev": 6646,
      "accompl": 6647,
      "channel": 6648,
      "conference": 6649,
      "idd": 6650,
      "ophy": 6651,
      "osis": 6652,
      "atech": 6653,
      "twel": 6654,
      "recru": 6655,
      "creator": 6656,
      "monument": 6657,
      "dry": 6658,
      "annah": 6659,
      "iously": 6660,
      "regime": 6661,
      "colour": 6662,
      "ropol": 6663,
      "paras": 6664,
      "crime": 6665,
      "unting": 6666,
      "adding": 6667,
      "engaged": 6668,
      "inking": 6669,
      "breaking": 6670,
      "characteristics": 6671,
      "Order": 6672,
      "Admir": 6673,
      "graphs": 6674,
      "initi": 6675,
      "Nether": 6676,
      "voiced": 6677,
      "diag": 6678,
      "Walter": 6679,
      "existed": 6680,
      "railway": 6681,
      "error": 6682,
      "reasons": 6683,
      "calcul": 6684,
      "SAFE": 6685,
      "Singles": 6686,
      "Holy": 6687,
      "concerns": 6688,
      "munic": 6689,
      "applied": 6690,
      "Castle": 6691,
      "digital": 6692,
      "regarding": 6693,
      "routes": 6694,
      "principal": 6695,
      "Television": 6696,
      "duties": 6697,
      "REL": 6698,
      "permanent": 6699,
      "academic": 6700,
      "agricultural": 6701,
      "mushroom": 6702,
      "predecess": 6703,
      "110": 6704,
      "112": 6705,
      "Ash": 6706,
      "BN": 6707,
      "Fame": 6708,
      "Jac": 6709,
      "Net": 6710,
      "Ow": 6711,
      "Sor": 6712,
      "Wy": 6713,
      "bond": 6714,
      "franch": 6715,
      "horses": 6716,
      "ien": 6717,
      "iot": 6718,
      "lu": 6719,
      "lav": 6720,
      "ninth": 6721,
      "oon": 6722,
      "rison": 6723,
      "save": 6724,
      "tle": 6725,
      "uff": 6726,
      "wine": 6727,
      "witness": 6728,
      "ívar": 6729,
      "inhabit": 6730,
      "stor": 6731,
      "esi": 6732,
      "ador": 6733,
      "aga": 6734,
      "eman": 6735,
      "abo": 6736,
      "mos": 6737,
      "proto": 6738,
      "tegr": 6739,
      "teacher": 6740,
      "rank": 6741,
      "display": 6742,
      "Anton": 6743,
      "myster": 6744,
      "iversary": 6745,
      "1943": 6746,
      "leads": 6747,
      "decor": 6748,
      "Islam": 6749,
      "legend": 6750,
      "willing": 6751,
      "organizations": 6752,
      "approved": 6753,
      "strip": 6754,
      "politics": 6755,
      "1909": 6756,
      "looked": 6757,
      "About": 6758,
      "squad": 6759,
      "Morrison": 6760,
      "assistance": 6761,
      "painted": 6762,
      "Hotel": 6763,
      "flights": 6764,
      "discussed": 6765,
      "indicate": 6766,
      "Howard": 6767,
      "Truj": 6768,
      "discovery": 6769,
      "Hugh": 6770,
      "shooting": 6771,
      "Bolívar": 6772,
      "attributed": 6773,
      "Secretary": 6774,
      "supplies": 6775,
      "instrument": 6776,
      "Columbia": 6777,
      "citiz": 6778,
      "Saprang": 6779,
      "widespread": 6780,
      "Bark": 6781,
      "Cory": 6782,
      "Edu": 6783,
      "FREL": 6784,
      "Jay": 6785,
      "NO": 6786,
      "RNA": 6787,
      "Wind": 6788,
      "cation": 6789,
      "cular": 6790,
      "crop": 6791,
      "cinem": 6792,
      "ients": 6793,
      "mac": 6794,
      "obl": 6795,
      "pel": 6796,
      "page": 6797,
      "sight": 6798,
      "wr": 6799,
      "zi": 6800,
      "ét": 6801,
      "eration": 6802,
      "replace": 6803,
      "stadium": 6804,
      "alions": 6805,
      "oux": 6806,
      "sects": 6807,
      "adjac": 6808,
      "chrom": 6809,
      "irs": 6810,
      "ivered": 6811,
      "terior": 6812,
      "idges": 6813,
      "1911": 6814,
      "sud": 6815,
      "shop": 6816,
      "rier": 6817,
      "asters": 6818,
      "owner": 6819,
      "fee": 6820,
      "worst": 6821,
      "evol": 6822,
      "sche": 6823,
      "Also": 6824,
      "forming": 6825,
      "loan": 6826,
      "crest": 6827,
      "1983": 6828,
      "Marines": 6829,
      "1948": 6830,
      "1949": 6831,
      "Carmel": 6832,
      "restling": 6833,
      "11th": 6834,
      "delivered": 6835,
      "Prof": 6836,
      "1958": 6837,
      "appropri": 6838,
      "camps": 6839,
      "Stefan": 6840,
      "Commit": 6841,
      "trading": 6842,
      "denied": 6843,
      "reality": 6844,
      "Within": 6845,
      "changing": 6846,
      "ulls": 6847,
      "coastal": 6848,
      "surviv": 6849,
      "cruiser": 6850,
      "Science": 6851,
      "Duke": 6852,
      "specifically": 6853,
      "literary": 6854,
      "pitcher": 6855,
      "defined": 6856,
      "poetry": 6857,
      "negative": 6858,
      "thousands": 6859,
      "crowd": 6860,
      "Ryan": 6861,
      "Fantasy": 6862,
      "latex": 6863,
      "submarine": 6864,
      "Trujillo": 6865,
      "FRELIMO": 6866,
      "91": 6867,
      "Ag": 6868,
      "Ak": 6869,
      "Band": 6870,
      "Fri": 6871,
      "Hob": 6872,
      "Jean": 6873,
      "Nintend": 6874,
      "Pass": 6875,
      "Press": 6876,
      "Spring": 6877,
      "Sports": 6878,
      "Vul": 6879,
      "cry": 6880,
      "dess": 6881,
      "ees": 6882,
      "math": 6883,
      "sun": 6884,
      "infr": 6885,
      "ano": 6886,
      "orient": 6887,
      "enge": 6888,
      "stances": 6889,
      "tos": 6890,
      "ione": 6891,
      "lets": 6892,
      "department": 6893,
      "imet": 6894,
      "etts": 6895,
      "resol": 6896,
      "opher": 6897,
      "istry": 6898,
      "abil": 6899,
      "exer": 6900,
      "aka": 6901,
      "aks": 6902,
      "graf": 6903,
      "Chagas": 6904,
      "Story": 6905,
      "aws": 6906,
      "Allied": 6907,
      "Third": 6908,
      "pregn": 6909,
      "anniversary": 6910,
      "sons": 6911,
      "producing": 6912,
      "charter": 6913,
      "ificial": 6914,
      "Construction": 6915,
      "Marine": 6916,
      "succeeded": 6917,
      "covering": 6918,
      "Carl": 6919,
      "Protest": 6920,
      "generation": 6921,
      "sequences": 6922,
      "facing": 6923,
      "Barbar": 6924,
      "joint": 6925,
      "volunte": 6926,
      "historians": 6927,
      "statement": 6928,
      "representing": 6929,
      "decline": 6930,
      "ruled": 6931,
      "rules": 6932,
      "freeway": 6933,
      "researchers": 6934,
      "consisting": 6935,
      "ratings": 6936,
      "accounts": 6937,
      "Braz": 6938,
      "printed": 6939,
      "satis": 6940,
      "Peninsula": 6941,
      "slowly": 6942,
      "Enterprise": 6943,
      "circum": 6944,
      "Human": 6945,
      "Labor": 6946,
      "Director": 6947,
      "enjoyed": 6948,
      "details": 6949,
      "astronom": 6950,
      "Somalia": 6951,
      "Nintendo": 6952,
      "57": 6953,
      "Ball": 6954,
      "Fern": 6955,
      "Midge": 6956,
      "Nev": 6957,
      "NBC": 6958,
      "Our": 6959,
      "Ode": 6960,
      "Pope": 6961,
      "Sa": 6962,
      "Stop": 6963,
      "Test": 6964,
      "cab": 6965,
      "eas": 6966,
      "gone": 6967,
      "jump": 6968,
      "mart": 6969,
      "rac": 6970,
      "taught": 6971,
      "vide": 6972,
      "inaug": 6973,
      "ilton": 6974,
      "deed": 6975,
      "ivals": 6976,
      "why": 6977,
      "ctic": 6978,
      "ette": 6979,
      "abor": 6980,
      "ifies": 6981,
      "osom": 6982,
      "ighter": 6983,
      "acks": 6984,
      "Chronic": 6985,
      "oked": 6986,
      "brary": 6987,
      "athers": 6988,
      "speech": 6989,
      "ensus": 6990,
      "angerous": 6991,
      "consum": 6992,
      "Joe": 6993,
      "appeal": 6994,
      "surg": 6995,
      "survey": 6996,
      "crim": 6997,
      "choice": 6998,
      "classical": 6999,
      "Allah": 7000,
      "refers": 7001,
      "netic": 7002,
      "islands": 7003,
      "settled": 7004,
      "divine": 7005,
      "divisions": 7006,
      "Championships": 7007,
      "Cambridge": 7008,
      "senior": 7009,
      "billion": 7010,
      "focused": 7011,
      "hoped": 7012,
      "sculpture": 7013,
      "Rhodes": 7014,
      "pilot": 7015,
      "mobile": 7016,
      "Office": 7017,
      "Shortly": 7018,
      "ISBN": 7019,
      "DAG": 7020,
      "reputation": 7021,
      "adjacent": 7022,
      "3D": 7023,
      "74": 7024,
      "88": 7025,
      "93": 7026,
      "Bos": 7027,
      "Nes": 7028,
      "Ré": 7029,
      "Rap": 7030,
      "Sav": 7031,
      "Wat": 7032,
      "caught": 7033,
      "dict": 7034,
      "eor": 7035,
      "iar": 7036,
      "jum": 7037,
      "lake": 7038,
      "mad": 7039,
      "oh": 7040,
      "ocean": 7041,
      "pa": 7042,
      "pine": 7043,
      "sam": 7044,
      "spr": 7045,
      "uous": 7046,
      "wel": 7047,
      "zone": 7048,
      "inals": 7049,
      "integr": 7050,
      "erog": 7051,
      "theatre": 7052,
      "rene": 7053,
      "ingly": 7054,
      "tox": 7055,
      "icon": 7056,
      "heli": 7057,
      "amin": 7058,
      "omtav": 7059,
      "agree": 7060,
      "1921": 7061,
      "1927": 7062,
      "resour": 7063,
      "plane": 7064,
      "plants": 7065,
      "expo": 7066,
      "exception": 7067,
      "cler": 7068,
      "ateur": 7069,
      "ishes": 7070,
      "overs": 7071,
      "afts": 7072,
      "landed": 7073,
      "landing": 7074,
      "partners": 7075,
      "Alf": 7076,
      "Ant": 7077,
      "Unlike": 7078,
      "cancer": 7079,
      "product": 7080,
      "Asomtav": 7081,
      "Lee": 7082,
      "muscar": 7083,
      "calls": 7084,
      "perior": 7085,
      "memorial": 7086,
      "classes": 7087,
      "stands": 7088,
      "Prime": 7089,
      "1931": 7090,
      "ugal": 7091,
      "Eliz": 7092,
      "Point": 7093,
      "relationships": 7094,
      "difficulty": 7095,
      "languages": 7096,
      "Malley": 7097,
      "planning": 7098,
      "chapel": 7099,
      "administration": 7100,
      "distinct": 7101,
      "onomy": 7102,
      "Francisco": 7103,
      "Alexander": 7104,
      "global": 7105,
      "Jeff": 7106,
      "Athletic": 7107,
      "WASP": 7108,
      "Additionally": 7109,
      "exhaust": 7110,
      "Committee": 7111,
      "Asomtavruli": 7112,
      "Bio": 7113,
      "DC": 7114,
      "Every": 7115,
      "Found": 7116,
      "Low": 7117,
      "MC": 7118,
      "Nad": 7119,
      "PC": 7120,
      "Pur": 7121,
      "Tower": 7122,
      "diet": 7123,
      "dyn": 7124,
      "fant": 7125,
      "gro": 7126,
      "iour": 7127,
      "iences": 7128,
      "knew": 7129,
      "lon": 7130,
      "lists": 7131,
      "march": 7132,
      "vin": 7133,
      "zen": 7134,
      "zac": 7135,
      "thin": 7136,
      "inian": 7137,
      "income": 7138,
      "edom": 7139,
      "orche": 7140,
      "deck": 7141,
      "unusual": 7142,
      "constant": 7143,
      "otal": 7144,
      "1910": 7145,
      "manner": 7146,
      "assess": 7147,
      "assumed": 7148,
      "pts": 7149,
      "evacu": 7150,
      "intense": 7151,
      "auto": 7152,
      "meets": 7153,
      "brand": 7154,
      "poses": 7155,
      "phone": 7156,
      "anned": 7157,
      "underground": 7158,
      "collabor": 7159,
      "Real": 7160,
      "Who": 7161,
      "1940s": 7162,
      "13th": 7163,
      "remainder": 7164,
      "passage": 7165,
      "porters": 7166,
      "listing": 7167,
      "iamond": 7168,
      "1932": 7169,
      "Techn": 7170,
      "ivalent": 7171,
      "factors": 7172,
      "ski": 7173,
      "naissance": 7174,
      "ullen": 7175,
      "Palace": 7176,
      "radiation": 7177,
      "strongly": 7178,
      "streets": 7179,
      "garian": 7180,
      "Crus": 7181,
      "Magazine": 7182,
      "poems": 7183,
      "terminus": 7184,
      "doub": 7185,
      "assistant": 7186,
      "surrounded": 7187,
      "chapter": 7188,
      "distributed": 7189,
      "hotel": 7190,
      "scientific": 7191,
      "considerable": 7192,
      "dollars": 7193,
      "picked": 7194,
      "rhyth": 7195,
      "preserved": 7196,
      "Engineer": 7197,
      "Croatia": 7198,
      "article": 7199,
      "Stanley": 7200,
      "isolated": 7201,
      "Mulder": 7202,
      "Grammy": 7203,
      "remnants": 7204,
      "atechism": 7205,
      "Barker": 7206,
      "Bang": 7207,
      "Gre": 7208,
      "Joy": 7209,
      "Sand": 7210,
      "bass": 7211,
      "crossing": 7212,
      "fusion": 7213,
      "mam": 7214,
      "pse": 7215,
      "si": 7216,
      "tone": 7217,
      "wedding": 7218,
      "ani": 7219,
      "oral": 7220,
      "orous": 7221,
      "encounter": 7222,
      "toll": 7223,
      "hear": 7224,
      "seg": 7225,
      "chess": 7226,
      "igation": 7227,
      "umin": 7228,
      "aints": 7229,
      "prohib": 7230,
      "quite": 7231,
      "Chief": 7232,
      "prised": 7233,
      "Stand": 7234,
      "evil": 7235,
      "scape": 7236,
      "partial": 7237,
      "ultane": 7238,
      "bright": 7239,
      "annually": 7240,
      "ocks": 7241,
      "pointed": 7242,
      "signing": 7243,
      "Islands": 7244,
      "province": 7245,
      "covers": 7246,
      "funds": 7247,
      "turns": 7248,
      "joining": 7249,
      "iterranean": 7250,
      "Perry": 7251,
      "reviewers": 7252,
      "window": 7253,
      "Portugal": 7254,
      "expensive": 7255,
      "involvement": 7256,
      "Atlanta": 7257,
      "Media": 7258,
      "Mediterranean": 7259,
      "association": 7260,
      "missions": 7261,
      "crossed": 7262,
      "Langu": 7263,
      "possession": 7264,
      "Military": 7265,
      "equipped": 7266,
      "recovered": 7267,
      "Legacy": 7268,
      "climate": 7269,
      "safety": 7270,
      "Frederick": 7271,
      "chorus": 7272,
      "thirty": 7273,
      "recommended": 7274,
      "proposal": 7275,
      "replacement": 7276,
      "Persian": 7277,
      "victims": 7278,
      "passengers": 7279,
      "extremely": 7280,
      "sudden": 7281,
      "Brazil": 7282,
      "videos": 7283,
      "Baker": 7284,
      "Dom": 7285,
      "Grom": 7286,
      "Garc": 7287,
      "Lennon": 7288,
      "Treat": 7289,
      "UE": 7290,
      "Wag": 7291,
      "Wolf": 7292,
      "Your": 7293,
      "bin": 7294,
      "cold": 7295,
      "caves": 7296,
      "dance": 7297,
      "eter": 7298,
      "faster": 7299,
      "gall": 7300,
      "mates": 7301,
      "puzz": 7302,
      "rh": 7303,
      "wet": 7304,
      "winner": 7305,
      "thosaurus": 7306,
      "incess": 7307,
      "ilit": 7308,
      "eld": 7309,
      "unch": 7310,
      "convers": 7311,
      "abilities": 7312,
      "pled": 7313,
      "peck": 7314,
      "sher": 7315,
      "expect": 7316,
      "iege": 7317,
      "Channel": 7318,
      "pty": 7319,
      "attached": 7320,
      "intention": 7321,
      "recalled": 7322,
      "format": 7323,
      "Release": 7324,
      "norm": 7325,
      "subspecies": 7326,
      "extreme": 7327,
      "parish": 7328,
      "Sha": 7329,
      "useful": 7330,
      "trying": 7331,
      "starlings": 7332,
      "1959": 7333,
      "Scully": 7334,
      "correct": 7335,
      "basic": 7336,
      "Bertin": 7337,
      "admitted": 7338,
      "patron": 7339,
      "Markgraf": 7340,
      "reduce": 7341,
      "AAF": 7342,
      "approached": 7343,
      "scriptions": 7344,
      "learning": 7345,
      "Keats": 7346,
      "alternative": 7347,
      "occasions": 7348,
      "FIFA": 7349,
      "protests": 7350,
      "Patrick": 7351,
      "Special": 7352,
      "bringing": 7353,
      "controvers": 7354,
      "incorporated": 7355,
      "obtained": 7356,
      "Mozambique": 7357,
      "Corythosaurus": 7358,
      "erogative": 7359,
      "exposure": 7360,
      "1000": 7361,
      "Bat": 7362,
      "Cy": 7363,
      "Corn": 7364,
      "Key": 7365,
      "Má": 7366,
      "Niel": 7367,
      "Plan": 7368,
      "Rat": 7369,
      "Rug": 7370,
      "Tro": 7371,
      "Ut": 7372,
      "Vis": 7373,
      "bats": 7374,
      "creek": 7375,
      "gé": 7376,
      "hope": 7377,
      "lord": 7378,
      "mand": 7379,
      "sunk": 7380,
      "wich": 7381,
      "sters": 7382,
      "heat": 7383,
      "entitled": 7384,
      "sector": 7385,
      "owed": 7386,
      "ceived": 7387,
      "1929": 7388,
      "avel": 7389,
      "abund": 7390,
      "moon": 7391,
      "shots": 7392,
      "excess": 7393,
      "expression": 7394,
      "ameter": 7395,
      "strateg": 7396,
      "firing": 7397,
      "brush": 7398,
      "Around": 7399,
      "See": 7400,
      "regional": 7401,
      "relative": 7402,
      "products": 7403,
      "icting": 7404,
      "somewhat": 7405,
      "views": 7406,
      "certs": 7407,
      "showing": 7408,
      "receive": 7409,
      "legs": 7410,
      "fund": 7411,
      "1955": 7412,
      "quez": 7413,
      "battalions": 7414,
      "brothers": 7415,
      "communication": 7416,
      "factory": 7417,
      "Poland": 7418,
      "goddess": 7419,
      "liner": 7420,
      "cules": 7421,
      "missing": 7422,
      "transportation": 7423,
      "Priest": 7424,
      "visitors": 7425,
      "Territ": 7426,
      "reserve": 7427,
      "Cathedral": 7428,
      "Build": 7429,
      "powered": 7430,
      "graduate": 7431,
      "europium": 7432,
      "committee": 7433,
      "Victoria": 7434,
      "split": 7435,
      "Fraser": 7436,
      "Rolling": 7437,
      "Roger": 7438,
      "parallel": 7439,
      "convection": 7440,
      "Lieutenant": 7441,
      "abeth": 7442,
      "Plunketts": 7443,
      "Netherlands": 7444,
      "franchise": 7445,
      "Wagner": 7446,
      "Rugby": 7447,
      "68": 7448,
      "Cop": 7449,
      "Cullen": 7450,
      "Catechism": 7451,
      "Dig": 7452,
      "Dark": 7453,
      "Hur": 7454,
      "Mir": 7455,
      "Matt": 7456,
      "Pa": 7457,
      "Son": 7458,
      "Ts": 7459,
      "hat": 7460,
      "hen": 7461,
      "ko": 7462,
      "lies": 7463,
      "nut": 7464,
      "pound": 7465,
      "sle": 7466,
      "ua": 7467,
      "za": 7468,
      "inland": 7469,
      "reconstruction": 7470,
      "arg": 7471,
      "isers": 7472,
      "isms": 7473,
      "acle": 7474,
      "bearing": 7475,
      "ols": 7476,
      "detailed": 7477,
      "improve": 7478,
      "idae": 7479,
      "otes": 7480,
      "apped": 7481,
      "expedition": 7482,
      "cloth": 7483,
      "essential": 7484,
      "feed": 7485,
      "recre": 7486,
      "spaces": 7487,
      "raise": 7488,
      "flat": 7489,
      "Austri": 7490,
      "visions": 7491,
      "releg": 7492,
      "charged": 7493,
      "locks": 7494,
      "helmet": 7495,
      "ologists": 7496,
      "causes": 7497,
      "courts": 7498,
      "starling": 7499,
      "aska": 7500,
      "Guy": 7501,
      "evening": 7502,
      "sequel": 7503,
      "sequently": 7504,
      "Space": 7505,
      "Organ": 7506,
      "1935": 7507,
      "Cook": 7508,
      "footage": 7509,
      "statistics": 7510,
      "seeing": 7511,
      "composer": 7512,
      "sufficient": 7513,
      "accused": 7514,
      "attracted": 7515,
      "teenth": 7516,
      "motion": 7517,
      "injuries": 7518,
      "completion": 7519,
      "Philip": 7520,
      "journey": 7521,
      "favorite": 7522,
      "watershed": 7523,
      "Olympics": 7524,
      "administr": 7525,
      "absor": 7526,
      "Justice": 7527,
      "Type": 7528,
      "vehicle": 7529,
      "session": 7530,
      "embark": 7531,
      "restricted": 7532,
      "specimens": 7533,
      "tunnel": 7534,
      "opinion": 7535,
      "vessels": 7536,
      "Phillies": 7537,
      "Wicca": 7538,
      "Nicole": 7539,
      "Profess": 7540,
      "UEFA": 7541,
      "67": 7542,
      "92": 7543,
      "Bou": 7544,
      "Cred": 7545,
      "Dor": 7546,
      "Dak": 7547,
      "Esh": 7548,
      "Girls": 7549,
      "Hou": 7550,
      "Hud": 7551,
      "Kang": 7552,
      "Last": 7553,
      "Masters": 7554,
      "Sel": 7555,
      "Sher": 7556,
      "TC": 7557,
      "Tig": 7558,
      "Voy": 7559,
      "Win": 7560,
      "Wars": 7561,
      "bitt": 7562,
      "fest": 7563,
      "gate": 7564,
      "horn": 7565,
      "lig": 7566,
      "nations": 7567,
      "ograph": 7568,
      "pp": 7569,
      "pus": 7570,
      "vir": 7571,
      "inher": 7572,
      "inscription": 7573,
      "onica": 7574,
      "represents": 7575,
      "orter": 7576,
      "enic": 7577,
      "alu": 7578,
      "iling": 7579,
      "illy": 7580,
      "devot": 7581,
      "ithic": 7582,
      "emp": 7583,
      "util": 7584,
      "romantic": 7585,
      "abol": 7586,
      "abled": 7587,
      "plate": 7588,
      "ride": 7589,
      "riev": 7590,
      "antly": 7591,
      "outbreak": 7592,
      "iped": 7593,
      "Charts": 7594,
      "veget": 7595,
      "kees": 7596,
      "oking": 7597,
      "lowest": 7598,
      "formally": 7599,
      "lose": 7600,
      "Anzac": 7601,
      "amps": 7602,
      "interpret": 7603,
      "Ark": 7604,
      "Section": 7605,
      "commem": 7606,
      "oven": 7607,
      "gameplay": 7608,
      "someone": 7609,
      "founder": 7610,
      "170": 7611,
      "Isab": 7612,
      "Color": 7613,
      "listen": 7614,
      "remember": 7615,
      "1937": 7616,
      "Earl": 7617,
      "oxy": 7618,
      "commandment": 7619,
      "everything": 7620,
      "slide": 7621,
      "involving": 7622,
      "Liu": 7623,
      "mixture": 7624,
      "connection": 7625,
      "Player": 7626,
      "measured": 7627,
      "Queens": 7628,
      "documents": 7629,
      "objects": 7630,
      "Square": 7631,
      "Trek": 7632,
      "reservo": 7633,
      "happy": 7634,
      "circulation": 7635,
      "Memorial": 7636,
      "Silver": 7637,
      "chairman": 7638,
      "Independent": 7639,
      "nurse": 7640,
      "jackrab": 7641,
      "pattern": 7642,
      "opposite": 7643,
      "eighth": 7644,
      "rescue": 7645,
      "fungus": 7646,
      "inspiration": 7647,
      "Pattycake": 7648,
      "municipal": 7649,
      "satisf": 7650,
      "Fernand": 7651,
      "García": 7652,
      "Age": 7653,
      "Benn": 7654,
      "Cyr": 7655,
      "Ful": 7656,
      "Gro": 7657,
      "Hope": 7658,
      "Lower": 7659,
      "MTV": 7660,
      "Oscar": 7661,
      "RI": 7662,
      "Rul": 7663,
      "aide": 7664,
      "festival": 7665,
      "mud": 7666,
      "pure": 7667,
      "tick": 7668,
      "vast": 7669,
      "inus": 7670,
      "sta": 7671,
      "isis": 7672,
      "elim": 7673,
      "beam": 7674,
      "olia": 7675,
      "depos": 7676,
      "unsuccessful": 7677,
      "aya": 7678,
      "cture": 7679,
      "iders": 7680,
      "isted": 7681,
      "absol": 7682,
      "trust": 7683,
      "exts": 7684,
      "exchange": 7685,
      "ocy": 7686,
      "astru": 7687,
      "manga": 7688,
      "grade": 7689,
      "afford": 7690,
      "prerogative": 7691,
      "oren": 7692,
      "scr": 7693,
      "ureau": 7694,
      "Along": 7695,
      "dismissed": 7696,
      "indicated": 7697,
      "brick": 7698,
      "Antim": 7699,
      "driving": 7700,
      "interchange": 7701,
      "anny": 7702,
      "flash": 7703,
      "regist": 7704,
      "Attor": 7705,
      "Beh": 7706,
      "offices": 7707,
      "grounds": 7708,
      "aski": 7709,
      "Canal": 7710,
      "kingdom": 7711,
      "Barry": 7712,
      "drawing": 7713,
      "burning": 7714,
      "priest": 7715,
      "influences": 7716,
      "laboration": 7717,
      "divor": 7718,
      "charts": 7719,
      "Township": 7720,
      "predomin": 7721,
      "electron": 7722,
      "Sunday": 7723,
      "promote": 7724,
      "Donald": 7725,
      "Richardson": 7726,
      "practices": 7727,
      "territories": 7728,
      "convin": 7729,
      "walk": 7730,
      "Lawrence": 7731,
      "Offic": 7732,
      "Waterfall": 7733,
      "moral": 7734,
      "scientists": 7735,
      "safe": 7736,
      "reinforce": 7737,
      "igrants": 7738,
      "specimen": 7739,
      "Nevertheless": 7740,
      "Writing": 7741,
      "premiered": 7742,
      "dialogue": 7743,
      "protagonist": 7744,
      "Marlborough": 7745,
      "Pulaski": 7746,
      "retirement": 7747,
      "Jesus": 7748,
      "Stefani": 7749,
      "exerc": 7750,
      "surgery": 7751,
      "Nesbitt": 7752,
      "Houston": 7753,
      "87": 7754,
      "97": 7755,
      "Adam": 7756,
      "Bi": 7757,
      "Gw": 7758,
      "Iron": 7759,
      "Jurch": 7760,
      "Kong": 7761,
      "Nick": 7762,
      "Power": 7763,
      "Tam": 7764,
      "Tun": 7765,
      "Women": 7766,
      "Xenon": 7767,
      "dim": 7768,
      "ja": 7769,
      "mary": 7770,
      "tied": 7771,
      "ware": 7772,
      "whel": 7773,
      "ye": 7774,
      "ths": 7775,
      "iná": 7776,
      "stance": 7777,
      "stock": 7778,
      "acter": 7779,
      "adier": 7780,
      "bear": 7781,
      "iri": 7782,
      "una": 7783,
      "cement": 7784,
      "aggress": 7785,
      "residence": 7786,
      "avo": 7787,
      "plom": 7788,
      "plus": 7789,
      "express": 7790,
      "aku": 7791,
      "arden": 7792,
      "ears": 7793,
      "overseas": 7794,
      "Chan": 7795,
      "ritual": 7796,
      "ights": 7797,
      "poison": 7798,
      "scop": 7799,
      "scrap": 7800,
      "merch": 7801,
      "recur": 7802,
      "partly": 7803,
      "ranges": 7804,
      "spur": 7805,
      "offs": 7806,
      "ansfield": 7807,
      "understand": 7808,
      "understanding": 7809,
      "angular": 7810,
      "insur": 7811,
      "consult": 7812,
      "whereas": 7813,
      "extent": 7814,
      "surrender": 7815,
      "identity": 7816,
      "engines": 7817,
      "describing": 7818,
      "oster": 7819,
      "belt": 7820,
      "towers": 7821,
      "erald": 7822,
      "Gray": 7823,
      "Grade": 7824,
      "Warren": 7825,
      "Carter": 7826,
      "porter": 7827,
      "vari": 7828,
      "musician": 7829,
      "reading": 7830,
      "USS": 7831,
      "check": 7832,
      "caster": 7833,
      "talk": 7834,
      "generated": 7835,
      "solution": 7836,
      "1933": 7837,
      "Romanian": 7838,
      "programme": 7839,
      "influential": 7840,
      "laws": 7841,
      "needs": 7842,
      "copy": 7843,
      "surviving": 7844,
      "hosted": 7845,
      "materials": 7846,
      "defeating": 7847,
      "Jews": 7848,
      "Republican": 7849,
      "responsibility": 7850,
      "bowl": 7851,
      "persu": 7852,
      "situated": 7853,
      "teeth": 7854,
      "examples": 7855,
      "linked": 7856,
      "intensified": 7857,
      "secured": 7858,
      "Colonel": 7859,
      "Commonwealth": 7860,
      "purchase": 7861,
      "baby": 7862,
      "sessions": 7863,
      "adults": 7864,
      "Historic": 7865,
      "behavior": 7866,
      "encouraged": 7867,
      "elsewhere": 7868,
      "Gallery": 7869,
      "Sioux": 7870,
      "Banai": 7871,
      "strengthened": 7872,
      "dinosaur": 7873,
      "iques": 7874,
      "Phoenix": 7875,
      "Aerith": 7876,
      "Gilbert": 7877,
      "Toniná": 7878,
      "initiative": 7879,
      "survivors": 7880,
      "muscaria": 7881,
      "Credits": 7882,
      "Attorney": 7883,
      "Ah": 7884,
      "Branch": 7885,
      "Dur": 7886,
      "Ell": 7887,
      "Gang": 7888,
      "Gael": 7889,
      "Ghost": 7890,
      "Hans": 7891,
      "Lud": 7892,
      "Mk": 7893,
      "Mand": 7894,
      "Much": 7895,
      "OS": 7896,
      "Rest": 7897,
      "Wi": 7898,
      "ais": 7899,
      "cod": 7900,
      "fountain": 7901,
      "oe": 7902,
      "rquez": 7903,
      "soft": 7904,
      "tu": 7905,
      "uge": 7906,
      "inscriptions": 7907,
      "theat": 7908,
      "renew": 7909,
      "essee": 7910,
      "toms": 7911,
      "accompany": 7912,
      "elle": 7913,
      "forth": 7914,
      "forcing": 7915,
      "impression": 7916,
      "owie": 7917,
      "uscri": 7918,
      "1926": 7919,
      "resign": 7920,
      "ava": 7921,
      "estate": 7922,
      "ockey": 7923,
      "aki": 7924,
      "earning": 7925,
      "enden": 7926,
      "acknow": 7927,
      "ordin": 7928,
      "geon": 7929,
      "strate": 7930,
      "actual": 7931,
      "inton": 7932,
      "brain": 7933,
      "liqu": 7934,
      "Until": 7935,
      "noisy": 7936,
      "sions": 7937,
      "regiment": 7938,
      "coll": 7939,
      "ryce": 7940,
      "angle": 7941,
      "committed": 7942,
      "genre": 7943,
      "elev": 7944,
      "Death": 7945,
      "15th": 7946,
      "download": 7947,
      "decay": 7948,
      "cyto": 7949,
      "arring": 7950,
      "characterized": 7951,
      "bands": 7952,
      "Germans": 7953,
      "limit": 7954,
      "tourist": 7955,
      "acycl": 7956,
      "howitz": 7957,
      "Moore": 7958,
      "borne": 7959,
      "villages": 7960,
      "audio": 7961,
      "Mexican": 7962,
      "meetings": 7963,
      "Madison": 7964,
      "Swiss": 7965,
      "civilian": 7966,
      "threatened": 7967,
      "traveled": 7968,
      "machines": 7969,
      "Samuel": 7970,
      "concerned": 7971,
      "settlements": 7972,
      "Tennessee": 7973,
      "challenge": 7974,
      "narrative": 7975,
      "drums": 7976,
      "1920s": 7977,
      "thousand": 7978,
      "Croatian": 7979,
      "behaviour": 7980,
      "environment": 7981,
      "spiritual": 7982,
      "sulf": 7983,
      "escort": 7984,
      "prompted": 7985,
      "exclusively": 7986,
      "stellar": 7987,
      "rugby": 7988,
      "twelve": 7989,
      "Admiral": 7990,
      "Márquez": 7991,
      "Eshmun": 7992,
      "82": 7993,
      "Aman": 7994,
      "Bah": 7995,
      "Eagle": 7996,
      "Fem": 7997,
      "Lith": 7998,
      "OM": 7999,
      "Ple": 8000,
      "Ridge": 8001,
      "Raj": 8002,
      "SS": 8003,
      "Sid": 8004,
      "Sem": 8005,
      "Ur": 8006,
      "eat": 8007,
      "hits": 8008,
      "hospit": 8009,
      "ipe": 8010,
      "khur": 8011,
      "ridge": 8012,
      "sq": 8013,
      "tip": 8014,
      "tale": 8015,
      "uable": 8016,
      "wants": 8017,
      "thy": 8018,
      "inct": 8019,
      "institution": 8020,
      "erry": 8021,
      "rebel": 8022,
      "ensure": 8023,
      "stim": 8024,
      "ilst": 8025,
      "select": 8026,
      "olay": 8027,
      "condem": 8028,
      "modif": 8029,
      "superior": 8030,
      "artificial": 8031,
      "odies": 8032,
      "asser": 8033,
      "achu": 8034,
      "serial": 8035,
      "intent": 8036,
      "centers": 8037,
      "rend": 8038,
      "driven": 8039,
      "fles": 8040,
      "retained": 8041,
      "mathem": 8042,
      "helic": 8043,
      "thereafter": 8044,
      "downtown": 8045,
      "1962": 8046,
      "describe": 8047,
      "originated": 8048,
      "steel": 8049,
      "operate": 8050,
      "considers": 8051,
      "memory": 8052,
      "1957": 8053,
      "Tracy": 8054,
      "ordering": 8055,
      "periods": 8056,
      "believes": 8057,
      "alien": 8058,
      "windows": 8059,
      "posts": 8060,
      "vertex": 8061,
      "purposes": 8062,
      "equivalent": 8063,
      "technical": 8064,
      "ucky": 8065,
      "difficulties": 8066,
      "violent": 8067,
      "closer": 8068,
      "Prior": 8069,
      "immediate": 8070,
      "Trans": 8071,
      "absence": 8072,
      "architecture": 8073,
      "Labour": 8074,
      "leadership": 8075,
      "Chapel": 8076,
      "deployed": 8077,
      "reconnaissance": 8078,
      "Korean": 8079,
      "opponents": 8080,
      "arrested": 8081,
      "preferred": 8082,
      "Yankees": 8083,
      "substantial": 8084,
      "magnitude": 8085,
      "Description": 8086,
      "Initially": 8087,
      "Jacob": 8088,
      "circumstances": 8089,
      "eorological": 8090,
      "helium": 8091,
      "resources": 8092,
      "Alfred": 8093,
      "Elizabeth": 8094,
      "Foundation": 8095,
      "batsman": 8096,
      "Gaelic": 8097,
      "900": 8098,
      "Adel": 8099,
      "DE": 8100,
      "Dog": 8101,
      "Et": 8102,
      "Front": 8103,
      "Federal": 8104,
      "Gary": 8105,
      "IG": 8106,
      "Late": 8107,
      "MI": 8108,
      "Naval": 8109,
      "Rom": 8110,
      "Sn": 8111,
      "Sis": 8112,
      "Sign": 8113,
      "Tax": 8114,
      "Vo": 8115,
      "dens": 8116,
      "fitted": 8117,
      "jazz": 8118,
      "none": 8119,
      "tight": 8120,
      "turb": 8121,
      "vac": 8122,
      "wer": 8123,
      "yield": 8124,
      "eru": 8125,
      "edges": 8126,
      "atop": 8127,
      "encing": 8128,
      "stick": 8129,
      "heim": 8130,
      "accom": 8131,
      "ilation": 8132,
      "eline": 8133,
      "terbury": 8134,
      "concerts": 8135,
      "ott": 8136,
      "1923": 8137,
      "1922": 8138,
      "suit": 8139,
      "rib": 8140,
      "overwhel": 8141,
      "ignment": 8142,
      "context": 8143,
      "spend": 8144,
      "Then": 8145,
      "lob": 8146,
      "shipping": 8147,
      "anyon": 8148,
      "rell": 8149,
      "recordings": 8150,
      "setts": 8151,
      "substitute": 8152,
      "Shakes": 8153,
      "ologies": 8154,
      "numbered": 8155,
      "ekān": 8156,
      "Johnston": 8157,
      "cargo": 8158,
      "hypo": 8159,
      "poll": 8160,
      "signal": 8161,
      "operates": 8162,
      "poration": 8163,
      "returns": 8164,
      "Fei": 8165,
      "classification": 8166,
      "incial": 8167,
      "Indones": 8168,
      "Canterbury": 8169,
      "Hergé": 8170,
      "Management": 8171,
      "effectively": 8172,
      "profile": 8173,
      "Polit": 8174,
      "equal": 8175,
      "appointment": 8176,
      "interests": 8177,
      "Hamilton": 8178,
      "vention": 8179,
      "araj": 8180,
      "cruisers": 8181,
      "Ministry": 8182,
      "properties": 8183,
      "housing": 8184,
      "nomination": 8185,
      "suffering": 8186,
      "biograph": 8187,
      "Imperial": 8188,
      "tournaments": 8189,
      "jobs": 8190,
      "qualified": 8191,
      "Giants": 8192,
      "emerged": 8193,
      "opportunities": 8194,
      "Communist": 8195,
      "wearing": 8196,
      "Massachu": 8197,
      "Independence": 8198,
      "Albums": 8199,
      "emotional": 8200,
      "ethnic": 8201,
      "adaptation": 8202,
      "Brooks": 8203,
      "leukemia": 8204,
      "Destiny": 8205,
      "custom": 8206,
      "Raffles": 8207,
      "Bedell": 8208,
      "Swedish": 8209,
      "arrangement": 8210,
      "neighborhood": 8211,
      "predecessor": 8212,
      "citizens": 8213,
      "Education": 8214,
      "criminal": 8215,
      "normally": 8216,
      "Nielsen": 8217,
      "commemor": 8218,
      "Antimony": 8219,
      "Lithuan": 8220,
      "Shakespe": 8221,
      "Massachusetts": 8222,
      "114": 8223,
      "Again": 8224,
      "Canning": 8225,
      "Elect": 8226,
      "Gill": 8227,
      "Gra": 8228,
      "Having": 8229,
      "Imag": 8230,
      "Ky": 8231,
      "Kim": 8232,
      "Know": 8233,
      "Kenn": 8234,
      "Khand": 8235,
      "Main": 8236,
      "Nic": 8237,
      "Now": 8238,
      "Nob": 8239,
      "Pine": 8240,
      "Peach": 8241,
      "Ren": 8242,
      "Rus": 8243,
      "Race": 8244,
      "Shad": 8245,
      "Yank": 8246,
      "banks": 8247,
      "dense": 8248,
      "snow": 8249,
      "tes": 8250,
      "infl": 8251,
      "inson": 8252,
      "thed": 8253,
      "onna": 8254,
      "rets": 8255,
      "ori": 8256,
      "orbit": 8257,
      "enzy": 8258,
      "stall": 8259,
      "arp": 8260,
      "tooth": 8261,
      "icul": 8262,
      "roit": 8263,
      "aders": 8264,
      "ellect": 8265,
      "oll": 8266,
      "implement": 8267,
      "terror": 8268,
      "ceased": 8269,
      "usage": 8270,
      "1925": 8271,
      "1928": 8272,
      "approv": 8273,
      "shif": 8274,
      "extension": 8275,
      "clust": 8276,
      "clock": 8277,
      "neth": 8278,
      "manuscri": 8279,
      "ordinary": 8280,
      "1850": 8281,
      "partner": 8282,
      "otherwise": 8283,
      "okovic": 8284,
      "displayed": 8285,
      "afterwards": 8286,
      "Anti": 8287,
      "monuments": 8288,
      "raising": 8289,
      "Arsen": 8290,
      "airline": 8291,
      "gene": 8292,
      "Ontar": 8293,
      "counties": 8294,
      "cki": 8295,
      "doct": 8296,
      "followers": 8297,
      "Show": 8298,
      "crash": 8299,
      "westward": 8300,
      "marry": 8301,
      "operating": 8302,
      "restored": 8303,
      "portrait": 8304,
      "ennium": 8305,
      "simultane": 8306,
      "continuing": 8307,
      "starred": 8308,
      "organisation": 8309,
      "Guide": 8310,
      "defended": 8311,
      "handled": 8312,
      "sentences": 8313,
      "storms": 8314,
      "1934": 8315,
      "Advent": 8316,
      "tests": 8317,
      "grey": 8318,
      "formerly": 8319,
      "temples": 8320,
      "compete": 8321,
      "burned": 8322,
      "Express": 8323,
      "Police": 8324,
      "Syn": 8325,
      "techniques": 8326,
      "liked": 8327,
      "semif": 8328,
      "measures": 8329,
      "reveals": 8330,
      "panel": 8331,
      "stationed": 8332,
      "ranging": 8333,
      "Veronica": 8334,
      "Social": 8335,
      "nationally": 8336,
      "Djokovic": 8337,
      "models": 8338,
      "Miller": 8339,
      "documented": 8340,
      "celebrated": 8341,
      "Soon": 8342,
      "molecules": 8343,
      "hundreds": 8344,
      "Argentine": 8345,
      "carrying": 8346,
      "journalist": 8347,
      "platform": 8348,
      "Original": 8349,
      "Satur": 8350,
      "Jonathan": 8351,
      "Railway": 8352,
      "candidate": 8353,
      "Stewart": 8354,
      "distinguished": 8355,
      "Detroit": 8356,
      "demolished": 8357,
      "beautiful": 8358,
      "residential": 8359,
      "eggs": 8360,
      "ropolitan": 8361,
      "appropriate": 8362,
      "imetres": 8363,
      "Réunion": 8364,
      "dynasty": 8365,
      "Building": 8366,
      "Isabella": 8367,
      "Cyrus": 8368,
      "astructure": 8369,
      "Shakespeare": 8370,
      "Yankovic": 8371,
      "Arsenal": 8372,
      "Ontario": 8373,
      "Buck": 8374,
      "Cas": 8375,
      "Cit": 8376,
      "Cra": 8377,
      "Cress": 8378,
      "Die": 8379,
      "Denn": 8380,
      "Daily": 8381,
      "Gan": 8382,
      "Gun": 8383,
      "Jen": 8384,
      "Kev": 8385,
      "Lam": 8386,
      "Next": 8387,
      "Pic": 8388,
      "Pir": 8389,
      "Prom": 8390,
      "Prest": 8391,
      "Such": 8392,
      "Ten": 8393,
      "Usher": 8394,
      "WC": 8395,
      "Youth": 8396,
      "cock": 8397,
      "cash": 8398,
      "dwar": 8399,
      "fishing": 8400,
      "gers": 8401,
      "giant": 8402,
      "iro": 8403,
      "map": 8404,
      "patch": 8405,
      "saved": 8406,
      "texts": 8407,
      "va": 8408,
      "vul": 8409,
      "ée": 8410,
      "inhab": 8411,
      "rebell": 8412,
      "orph": 8413,
      "arian": 8414,
      "assembly": 8415,
      "icide": 8416,
      "acute": 8417,
      "amy": 8418,
      "amounts": 8419,
      "sees": 8420,
      "sevent": 8421,
      "elder": 8422,
      "olen": 8423,
      "destruction": 8424,
      "impossible": 8425,
      "agogue": 8426,
      "otic": 8427,
      "1924": 8428,
      "erected": 8429,
      "trail": 8430,
      "exit": 8431,
      "clay": 8432,
      "gray": 8433,
      "iao": 8434,
      "prime": 8435,
      "feeding": 8436,
      "ported": 8437,
      "intellect": 8438,
      "1830": 8439,
      "parties": 8440,
      "disaster": 8441,
      "disrupt": 8442,
      "meters": 8443,
      "Ancient": 8444,
      "weigh": 8445,
      "coins": 8446,
      "phr": 8447,
      "knock": 8448,
      "understood": 8449,
      "collaboration": 8450,
      "osex": 8451,
      "oys": 8452,
      "Conservation": 8453,
      "severely": 8454,
      "runners": 8455,
      "steep": 8456,
      "Maya": 8457,
      "aza": 8458,
      "depicts": 8459,
      "receives": 8460,
      "ashi": 8461,
      "topes": 8462,
      "Program": 8463,
      "standards": 8464,
      "attered": 8465,
      "promised": 8466,
      "facilit": 8467,
      "armor": 8468,
      "collect": 8469,
      "iveness": 8470,
      "movements": 8471,
      "Peters": 8472,
      "1908": 8473,
      "diameter": 8474,
      "diplom": 8475,
      "affair": 8476,
      "employment": 8477,
      "quarterback": 8478,
      "Business": 8479,
      "Upper": 8480,
      "engineer": 8481,
      "reveal": 8482,
      "Toronto": 8483,
      "watching": 8484,
      "Congo": 8485,
      "installed": 8486,
      "credit": 8487,
      "Delaware": 8488,
      "propag": 8489,
      "observations": 8490,
      "Palestinian": 8491,
      "corner": 8492,
      "Bradford": 8493,
      "Mountains": 8494,
      "translation": 8495,
      "pursue": 8496,
      "departure": 8497,
      "Supreme": 8498,
      "Confess": 8499,
      "hydrogen": 8500,
      "fatal": 8501,
      "legislation": 8502,
      "psych": 8503,
      "Dominican": 8504,
      "Murray": 8505,
      "dramatic": 8506,
      "Palmyrene": 8507,
      "Kelly": 8508,
      "Nadal": 8509,
      "Treaty": 8510,
      "controversial": 8511,
      "Dakota": 8512,
      "Hudson": 8513,
      "Colorado": 8514,
      "Khandoba": 8515,
      "dwarf": 8516,
      "Cab": 8517,
      "Case": 8518,
      "Dud": 8519,
      "Data": 8520,
      "Fall": 8521,
      "Gate": 8522,
      "Hom": 8523,
      "Hok": 8524,
      "Ira": 8525,
      "Las": 8526,
      "Mach": 8527,
      "Rain": 8528,
      "Roc": 8529,
      "Sl": 8530,
      "Sab": 8531,
      "UC": 8532,
      "Vander": 8533,
      "Wild": 8534,
      "Zoo": 8535,
      "bay": 8536,
      "bore": 8537,
      "easy": 8538,
      "grown": 8539,
      "nels": 8540,
      "ois": 8541,
      "sale": 8542,
      "ux": 8543,
      "wan": 8544,
      "wives": 8545,
      "anag": 8546,
      "anekān": 8547,
      "atum": 8548,
      "origins": 8549,
      "iso": 8550,
      "enters": 8551,
      "amino": 8552,
      "bears": 8553,
      "lyn": 8554,
      "determ": 8555,
      "uni": 8556,
      "congreg": 8557,
      "aph": 8558,
      "resigned": 8559,
      "triple": 8560,
      "shirt": 8561,
      "exists": 8562,
      "clin": 8563,
      "cles": 8564,
      "rior": 8565,
      "riarch": 8566,
      "ishment": 8567,
      "notably": 8568,
      "aux": 8569,
      "oko": 8570,
      "displays": 8571,
      "Thus": 8572,
      "renov": 8573,
      "liber": 8574,
      "aceae": 8575,
      "interpre": 8576,
      "fled": 8577,
      "kner": 8578,
      "relie": 8579,
      "minster": 8580,
      "produces": 8581,
      "charity": 8582,
      "suburb": 8583,
      "Sholay": 8584,
      "engage": 8585,
      "Rox": 8586,
      "transition": 8587,
      "continental": 8588,
      "140": 8589,
      "designs": 8590,
      "musicians": 8591,
      "topped": 8592,
      "breed": 8593,
      "attacking": 8594,
      "Heritage": 8595,
      "Christine": 8596,
      "facility": 8597,
      "falls": 8598,
      "productions": 8599,
      "celled": 8600,
      "storyline": 8601,
      "suggesting": 8602,
      "burgh": 8603,
      "networks": 8604,
      "Richmond": 8605,
      "interested": 8606,
      "Abby": 8607,
      "Briggs": 8608,
      "Centre": 8609,
      "culmin": 8610,
      "achieve": 8611,
      "learn": 8612,
      "poorly": 8613,
      "wheel": 8614,
      "potentially": 8615,
      "altern": 8616,
      "occupation": 8617,
      "Prize": 8618,
      "Emmy": 8619,
      "Hills": 8620,
      "munition": 8621,
      "frequent": 8622,
      "application": 8623,
      "spoke": 8624,
      "badly": 8625,
      "Krak": 8626,
      "sculptures": 8627,
      "nickn": 8628,
      "neutr": 8629,
      "Russia": 8630,
      "demonstrated": 8631,
      "throne": 8632,
      "camera": 8633,
      "tribute": 8634,
      "adventure": 8635,
      "cotton": 8636,
      "Weekly": 8637,
      "Cubs": 8638,
      "picture": 8639,
      "niowie": 8640,
      "inhabitants": 8641,
      "Hobbs": 8642,
      "rhythm": 8643,
      "oxygen": 8644,
      "acyclic": 8645,
      "Amanita": 8646,
      "modified": 8647,
      "IGN": 8648,
      "Cresswell": 8649,
      "determine": 8650,
      "09": 8651,
      "113": 8652,
      "83": 8653,
      "84": 8654,
      "Abr": 8655,
      "Amy": 8656,
      "Bureau": 8657,
      "FC": 8658,
      "Hg": 8659,
      "Hop": 8660,
      "Kit": 8661,
      "Kam": 8662,
      "Lane": 8663,
      "Living": 8664,
      "Oreg": 8665,
      "Pow": 8666,
      "Pup": 8667,
      "Panz": 8668,
      "Rand": 8669,
      "ST": 8670,
      "Terror": 8671,
      "Wrestling": 8672,
      "Yellow": 8673,
      "bom": 8674,
      "eign": 8675,
      "iest": 8676,
      "iary": 8677,
      "penter": 8678,
      "pistol": 8679,
      "rivers": 8680,
      "tap": 8681,
      "vs": 8682,
      "śniowie": 8683,
      "inci": 8684,
      "rebuilt": 8685,
      "enous": 8686,
      "icy": 8687,
      "amateur": 8688,
      "ammunition": 8689,
      "selection": 8690,
      "ader": 8691,
      "urally": 8692,
      "beings": 8693,
      "wasn": 8694,
      "olis": 8695,
      "degre": 8696,
      "ceme": 8697,
      "agar": 8698,
      "emed": 8699,
      "comed": 8700,
      "comments": 8701,
      "plas": 8702,
      "shut": 8703,
      "earn": 8704,
      "acked": 8705,
      "overeign": 8706,
      "stries": 8707,
      "noting": 8708,
      "blow": 8709,
      "blaz": 8710,
      "attained": 8711,
      "ranking": 8712,
      "braska": 8713,
      "Anne": 8714,
      "prep": 8715,
      "coin": 8716,
      "interaction": 8717,
      "Reines": 8718,
      "icken": 8719,
      "visiting": 8720,
      "consol": 8721,
      "Josh": 8722,
      "medium": 8723,
      "Work": 8724,
      "Isesi": 8725,
      "Gerard": 8726,
      "Clinton": 8727,
      "261": 8728,
      "sentiment": 8729,
      "explain": 8730,
      "attempting": 8731,
      "striking": 8732,
      "Nebraska": 8733,
      "Wilson": 8734,
      "victories": 8735,
      "1890": 8736,
      "looks": 8737,
      "Pole": 8738,
      "Poly": 8739,
      "experiences": 8740,
      "squadron": 8741,
      "wider": 8742,
      "fifty": 8743,
      "recognised": 8744,
      "conduct": 8745,
      "praise": 8746,
      "assisted": 8747,
      "mediate": 8748,
      "costs": 8749,
      "itzer": 8750,
      "Activision": 8751,
      "stayed": 8752,
      "Collection": 8753,
      "install": 8754,
      "colonies": 8755,
      "Trib": 8756,
      "cuit": 8757,
      "feeling": 8758,
      "Trees": 8759,
      "favorable": 8760,
      "dynam": 8761,
      "recovery": 8762,
      "schedule": 8763,
      "illustrated": 8764,
      "withdrawal": 8765,
      "detected": 8766,
      "Louisiana": 8767,
      "duty": 8768,
      "sacred": 8769,
      "environmental": 8770,
      "Matthew": 8771,
      "pushed": 8772,
      "Gardner": 8773,
      "Province": 8774,
      "descend": 8775,
      "assassination": 8776,
      "delayed": 8777,
      "Alberta": 8778,
      "minimum": 8779,
      "Baseball": 8780,
      "false": 8781,
      "Islamic": 8782,
      "Protestant": 8783,
      "Territory": 8784,
      "Wiśniowie": 8785,
      "acknowled": 8786,
      "Etty": 8787,
      "approval": 8788,
      "Kevin": 8789,
      "Dudley": 8790,
      "Oregon": 8791,
      "Panzer": 8792,
      "degrees": 8793,
      "Amb": 8794,
      "Banks": 8795,
      "Budd": 8796,
      "Cu": 8797,
      "Cad": 8798,
      "Cape": 8799,
      "Dod": 8800,
      "Dave": 8801,
      "Dota": 8802,
      "Falls": 8803,
      "Jr": 8804,
      "List": 8805,
      "Mack": 8806,
      "Nel": 8807,
      "Pryce": 8808,
      "Rif": 8809,
      "Sans": 8810,
      "Swe": 8811,
      "Tide": 8812,
      "Tok": 8813,
      "cous": 8814,
      "dish": 8815,
      "dangerous": 8816,
      "gle": 8817,
      "gates": 8818,
      "hin": 8819,
      "iac": 8820,
      "kings": 8821,
      "mature": 8822,
      "oing": 8823,
      "pig": 8824,
      "sung": 8825,
      "tical": 8826,
      "instru": 8827,
      "analy": 8828,
      "theater": 8829,
      "onwards": 8830,
      "edoc": 8831,
      "sting": 8832,
      "starring": 8833,
      "icia": 8834,
      "roots": 8835,
      "lete": 8836,
      "acids": 8837,
      "dean": 8838,
      "impl": 8839,
      "conversion": 8840,
      "agod": 8841,
      "oples": 8842,
      "tri": 8843,
      "trained": 8844,
      "estone": 8845,
      "Ingres": 8846,
      "shr": 8847,
      "clip": 8848,
      "artwork": 8849,
      "ardo": 8850,
      "twin": 8851,
      "grave": 8852,
      "assador": 8853,
      "Heart": 8854,
      "desert": 8855,
      "disci": 8856,
      "Those": 8857,
      "uez": 8858,
      "creative": 8859,
      "ibi": 8860,
      "intercept": 8861,
      "internal": 8862,
      "relations": 8863,
      "canal": 8864,
      "genetic": 8865,
      "retreat": 8866,
      "inness": 8867,
      "Ship": 8868,
      "crake": 8869,
      "choir": 8870,
      "transmission": 8871,
      "Works": 8872,
      "runway": 8873,
      "depending": 8874,
      "disturb": 8875,
      "membran": 8876,
      "ctoral": 8877,
      "requires": 8878,
      "childhood": 8879,
      "starter": 8880,
      "casting": 8881,
      "Allen": 8882,
      "armored": 8883,
      "21st": 8884,
      "fallen": 8885,
      "traded": 8886,
      "Interchange": 8887,
      "refuge": 8888,
      "urricanes": 8889,
      "magnetic": 8890,
      "scribed": 8891,
      "closest": 8892,
      "streak": 8893,
      "Davis": 8894,
      "vertical": 8895,
      "destroyer": 8896,
      "criticised": 8897,
      "Crim": 8898,
      "electronic": 8899,
      "employees": 8900,
      "antiqu": 8901,
      "MLB": 8902,
      "perspect": 8903,
      "altered": 8904,
      "thinking": 8905,
      "objective": 8906,
      "instance": 8907,
      "Turks": 8908,
      "avalry": 8909,
      "indicating": 8910,
      "Lawton": 8911,
      "feelings": 8912,
      "newspapers": 8913,
      "judge": 8914,
      "Lords": 8915,
      "Books": 8916,
      "neutral": 8917,
      "beaten": 8918,
      "weapon": 8919,
      "distinctive": 8920,
      "hedruli": 8921,
      "Hawaii": 8922,
      "youngest": 8923,
      "turrets": 8924,
      "closure": 8925,
      "ARVN": 8926,
      "Michel": 8927,
      "dominant": 8928,
      "fixed": 8929,
      "components": 8930,
      "Transportation": 8931,
      "Democratic": 8932,
      "diagn": 8933,
      "Vulcan": 8934,
      "infrastructure": 8935,
      "Arkansas": 8936,
      "Mkhedruli": 8937,
      "helicop": 8938,
      "Adelaide": 8939,
      "Imagine": 8940,
      "Saturday": 8941,
      "02": 8942,
      "Bidd": 8943,
      "CBS": 8944,
      "Din": 8945,
      "Ders": 8946,
      "Food": 8947,
      "Faul": 8948,
      "Flower": 8949,
      "Gib": 8950,
      "Kon": 8951,
      "Luc": 8952,
      "Mol": 8953,
      "Nar": 8954,
      "Nav": 8955,
      "OK": 8956,
      "Publ": 8957,
      "Ra": 8958,
      "Sle": 8959,
      "Shell": 8960,
      "Vice": 8961,
      "Wright": 8962,
      "Wik": 8963,
      "chel": 8964,
      "fo": 8965,
      "fine": 8966,
      "hunting": 8967,
      "iod": 8968,
      "mask": 8969,
      "punt": 8970,
      "pale": 8971,
      "pounds": 8972,
      "rinth": 8973,
      "sop": 8974,
      "sper": 8975,
      "sailed": 8976,
      "saves": 8977,
      "siege": 8978,
      "tz": 8979,
      "tis": 8980,
      "wings": 8981,
      "yers": 8982,
      "infection": 8983,
      "indeed": 8984,
      "inHg": 8985,
      "eries": 8986,
      "remark": 8987,
      "ito": 8988,
      "itic": 8989,
      "toured": 8990,
      "sect": 8991,
      "oming": 8992,
      "eless": 8993,
      "urer": 8994,
      "forty": 8995,
      "olithic": 8996,
      "deer": 8997,
      "impressed": 8998,
      "imprison": 8999,
      "owa": 9000,
      "concess": 9001,
      "constitution": 9002,
      "verte": 9003,
      "iday": 9004,
      "byrinth": 9005,
      "ulu": 9006,
      "triang": 9007,
      "estyle": 9008,
      "sures": 9009,
      "shift": 9010,
      "ocaust": 9011,
      "akers": 9012,
      "berry": 9013,
      "ieth": 9014,
      "gry": 9015,
      "Stat": 9016,
      "timate": 9017,
      "merely": 9018,
      "merged": 9019,
      "uren": 9020,
      "Health": 9021,
      "spending": 9022,
      "speaker": 9023,
      "noble": 9024,
      "Season": 9025,
      "colum": 9026,
      "Auburn": 9027,
      "Asian": 9028,
      "writings": 9029,
      "Deep": 9030,
      "highways": 9031,
      "doors": 9032,
      "backs": 9033,
      "balls": 9034,
      "Beg": 9035,
      "decides": 9036,
      "14th": 9037,
      "designer": 9038,
      "Europ": 9039,
      "arrive": 9040,
      "atherine": 9041,
      "classic": 9042,
      "fici": 9043,
      "Count": 9044,
      "Westminster": 9045,
      "Christians": 9046,
      "Christopher": 9047,
      "defences": 9048,
      "personality": 9049,
      "genera": 9050,
      "explo": 9051,
      "testing": 9052,
      "Interstate": 9053,
      "sket": 9054,
      "profit": 9055,
      "Twenty": 9056,
      "historically": 9057,
      "posted": 9058,
      "bases": 9059,
      "Register": 9060,
      "ruling": 9061,
      "animated": 9062,
      "predators": 9063,
      "traits": 9064,
      "Arabs": 9065,
      "Madero": 9066,
      "friendly": 9067,
      "injured": 9068,
      "telling": 9069,
      "spacecraft": 9070,
      "petition": 9071,
      "boundaries": 9072,
      "establishing": 9073,
      "contribution": 9074,
      "preparation": 9075,
      "Hoover": 9076,
      "kilome": 9077,
      "walking": 9078,
      "spoken": 9079,
      "Overall": 9080,
      "keeping": 9081,
      "NCAA": 9082,
      "northeastern": 9083,
      "grandfather": 9084,
      "debate": 9085,
      "neutron": 9086,
      "Formula": 9087,
      "Victorian": 9088,
      "rhyme": 9089,
      "Cambodian": 9090,
      "seeking": 9091,
      "ceremon": 9092,
      "Creutz": 9093,
      "Journey": 9094,
      "huge": 9095,
      "tavāda": 9096,
      "excavation": 9097,
      "excavations": 9098,
      "smooth": 9099,
      "seemed": 9100,
      "ATP": 9101,
      "Qedarites": 9102,
      "tactics": 9103,
      "rifle": 9104,
      "Guardian": 9105,
      "delivery": 9106,
      "Owen": 9107,
      "Sorra": 9108,
      "wrong": 9109,
      "Friends": 9110,
      "toxic": 9111,
      "Languedoc": 9112,
      "Queensland": 9113,
      "Fernandez": 9114,
      "convinced": 9115,
      "hospitals": 9116,
      "Preston": 9117,
      "Iraq": 9118,
      "Wiśniowiecki": 9119,
      "Biddenden": 9120,
      "Dershowitz": 9121,
      "73": 9122,
      "86": 9123,
      "Bh": 9124,
      "Bad": 9125,
      "Bush": 9126,
      "Bulls": 9127,
      "Cd": 9128,
      "Cir": 9129,
      "Cant": 9130,
      "Celt": 9131,
      "Div": 9132,
      "Dum": 9133,
      "Dah": 9134,
      "Eight": 9135,
      "Fig": 9136,
      "Fast": 9137,
      "Flight": 9138,
      "GB": 9139,
      "Girl": 9140,
      "Happ": 9141,
      "Ian": 9142,
      "Kansas": 9143,
      "Let": 9144,
      "Mix": 9145,
      "Mars": 9146,
      "ND": 9147,
      "Pagan": 9148,
      "Us": 9149,
      "VI": 9150,
      "bare": 9151,
      "cave": 9152,
      "cars": 9153,
      "cards": 9154,
      "dale": 9155,
      "jet": 9156,
      "lumin": 9157,
      "oke": 9158,
      "rí": 9159,
      "rising": 9160,
      "tank": 9161,
      "zer": 9162,
      "ön": 9163,
      "āh": 9164,
      "inaw": 9165,
      "inations": 9166,
      "rep": 9167,
      "reli": 9168,
      "refin": 9169,
      "aria": 9170,
      "asp": 9171,
      "esis": 9172,
      "heera": 9173,
      "acon": 9174,
      "ami": 9175,
      "aduct": 9176,
      "oma": 9177,
      "elabor": 9178,
      "champions": 9179,
      "bee": 9180,
      "olence": 9181,
      "ira": 9182,
      "constitut": 9183,
      "conservation": 9184,
      "etime": 9185,
      "resumed": 9186,
      "trick": 9187,
      "proportion": 9188,
      "ifer": 9189,
      "quant": 9190,
      "twent": 9191,
      "Champions": 9192,
      "prises": 9193,
      "Style": 9194,
      "portions": 9195,
      "upgraded": 9196,
      "evolution": 9197,
      "spots": 9198,
      "Thai": 9199,
      "prefect": 9200,
      "coinc": 9201,
      "draf": 9202,
      "anyone": 9203,
      "annon": 9204,
      "column": 9205,
      "tenance": 9206,
      "Composition": 9207,
      "lanes": 9208,
      "supporters": 9209,
      "ieties": 9210,
      "Marg": 9211,
      "carved": 9212,
      "Beau": 9213,
      "beds": 9214,
      "metall": 9215,
      "restoration": 9216,
      "depicting": 9217,
      "memor": 9218,
      "fundam": 9219,
      "talking": 9220,
      "soci": 9221,
      "Geoff": 9222,
      "Paraly": 9223,
      "valid": 9224,
      "Andre": 9225,
      "Web": 9226,
      "communications": 9227,
      "fewer": 9228,
      "household": 9229,
      "moderate": 9230,
      "amongst": 9231,
      "vertices": 9232,
      "Event": 9233,
      "Together": 9234,
      "ucing": 9235,
      "shoulder": 9236,
      "demands": 9237,
      "Corporation": 9238,
      "connecting": 9239,
      "Abd": 9240,
      "audiences": 9241,
      "circle": 9242,
      "Harold": 9243,
      "YouTu": 9244,
      "survive": 9245,
      "donated": 9246,
      "honour": 9247,
      "Minor": 9248,
      "crews": 9249,
      "engineers": 9250,
      "synagogue": 9251,
      "vote": 9252,
      "Rocky": 9253,
      "Holocaust": 9254,
      "daughters": 9255,
      "birthday": 9256,
      "aptist": 9257,
      "preced": 9258,
      "itchcraft": 9259,
      "Meteorological": 9260,
      "argues": 9261,
      "Import": 9262,
      "championships": 9263,
      "Survey": 9264,
      "Cheval": 9265,
      "Lancaster": 9266,
      "Species": 9267,
      "Haitian": 9268,
      "junior": 9269,
      "molecular": 9270,
      "rotation": 9271,
      "pulled": 9272,
      "translated": 9273,
      "Return": 9274,
      "struggle": 9275,
      "rubber": 9276,
      "symptoms": 9277,
      "message": 9278,
      "anthrop": 9279,
      "suspended": 9280,
      "battleships": 9281,
      "Lessing": 9282,
      "keeper": 9283,
      "easily": 9284,
      "martial": 9285,
      "Watson": 9286,
      "doubt": 9287,
      "rieved": 9288,
      "Bennett": 9289,
      "aggressive": 9290,
      "Sisler": 9291,
      "osexual": 9292,
      "isotopes": 9293,
      "cemetery": 9294,
      "Sweet": 9295,
      "Faulkner": 9296,
      "Sorraia": 9297,
      "Paralymp": 9298,
      "YouTube": 9299,
      "BO": 9300,
      "Bird": 9301,
      "Benj": 9302,
      "Canyon": 9303,
      "Dw": 9304,
      "Eric": 9305,
      "Fle": 9306,
      "Fif": 9307,
      "Flow": 9308,
      "Got": 9309,
      "Glo": 9310,
      "Hair": 9311,
      "IR": 9312,
      "Jason": 9313,
      "Jenn": 9314,
      "Khan": 9315,
      "Lad": 9316,
      "Mes": 9317,
      "Nu": 9318,
      "Num": 9319,
      "Nash": 9320,
      "OC": 9321,
      "Od": 9322,
      "Omar": 9323,
      "Saf": 9324,
      "U2": 9325,
      "VII": 9326,
      "Wis": 9327,
      "aic": 9328,
      "bag": 9329,
      "bind": 9330,
      "cats": 9331,
      "diver": 9332,
      "gon": 9333,
      "gap": 9334,
      "gium": 9335,
      "gaining": 9336,
      "harm": 9337,
      "iy": 9338,
      "jury": 9339,
      "lad": 9340,
      "mn": 9341,
      "pest": 9342,
      "sin": 9343,
      "ske": 9344,
      "sample": 9345,
      "skills": 9346,
      "tig": 9347,
      "tub": 9348,
      "uer": 9349,
      "thi": 9350,
      "online": 9351,
      "revers": 9352,
      "remarked": 9353,
      "stin": 9354,
      "stabil": 9355,
      "itively": 9356,
      "icial": 9357,
      "het": 9358,
      "leton": 9359,
      "illegal": 9360,
      "elimin": 9361,
      "det": 9362,
      "ceeding": 9363,
      "aggreg": 9364,
      "uskhur": 9365,
      "embr": 9366,
      "rescu": 9367,
      "avia": 9368,
      "iston": 9369,
      "trials": 9370,
      "trails": 9371,
      "peaking": 9372,
      "shock": 9373,
      "shorter": 9374,
      "illness": 9375,
      "odium": 9376,
      "string": 9377,
      "eller": 9378,
      "dual": 9379,
      "pron": 9380,
      "updated": 9381,
      "evident": 9382,
      "scope": 9383,
      "Hearts": 9384,
      "deser": 9385,
      "disband": 9386,
      "adequ": 9387,
      "aceous": 9388,
      "reducing": 9389,
      "archbishop": 9390,
      "Seattle": 9391,
      "angered": 9392,
      "Comple": 9393,
      "submitted": 9394,
      "hys": 9395,
      "inae": 9396,
      "hamlet": 9397,
      "organised": 9398,
      "Allosaurus": 9399,
      "difference": 9400,
      "solar": 9401,
      "armament": 9402,
      "claiming": 9403,
      "1938": 9404,
      "falling": 9405,
      "colleagues": 9406,
      "putting": 9407,
      "rounds": 9408,
      "cleared": 9409,
      "Africaine": 9410,
      "tours": 9411,
      "1902": 9412,
      "1905": 9413,
      "1907": 9414,
      "Moon": 9415,
      "Berlin": 9416,
      "Madrid": 9417,
      "respective": 9418,
      "golden": 9419,
      "pani": 9420,
      "frustr": 9421,
      "boxing": 9422,
      "nyi": 9423,
      "definition": 9424,
      "Belgium": 9425,
      "indicates": 9426,
      "Howe": 9427,
      "expert": 9428,
      "touchdowns": 9429,
      "Finals": 9430,
      "Commandos": 9431,
      "steps": 9432,
      "Outstanding": 9433,
      "revived": 9434,
      "wealthy": 9435,
      "exhibition": 9436,
      "sacr": 9437,
      "struggled": 9438,
      "Confeder": 9439,
      "gravity": 9440,
      "Observ": 9441,
      "Originally": 9442,
      "lbw": 9443,
      "dubbed": 9444,
      "universities": 9445,
      "sisters": 9446,
      "alpha": 9447,
      "WWF": 9448,
      "NHL": 9449,
      "Network": 9450,
      "decorated": 9451,
      "crops": 9452,
      "scheme": 9453,
      "partnership": 9454,
      "conversation": 9455,
      "Ruler": 9456,
      "eliminated": 9457,
      "registered": 9458,
      "mathemat": 9459,
      "Pirates": 9460,
      "prepare": 9461,
      "vertebr": 9462,
      "columns": 9463,
      "Benjamin": 9464,
      "uskhuri": 9465,
      "07": 9466,
      "08": 9467,
      "AL": 9468,
      "Ace": 9469,
      "Astr": 9470,
      "Bren": 9471,
      "Born": 9472,
      "Cart": 9473,
      "Cultural": 9474,
      "Da": 9475,
      "Face": 9476,
      "Had": 9477,
      "Hind": 9478,
      "Harrison": 9479,
      "Imm": 9480,
      "Iowa": 9481,
      "Kle": 9482,
      "Knight": 9483,
      "Lim": 9484,
      "Nett": 9485,
      "Nuskhuri": 9486,
      "Pak": 9487,
      "RC": 9488,
      "Ster": 9489,
      "Shel": 9490,
      "Tar": 9491,
      "Tales": 9492,
      "Wu": 9493,
      "aus": 9494,
      "dad": 9495,
      "duration": 9496,
      "fate": 9497,
      "ffl": 9498,
      "loud": 9499,
      "pap": 9500,
      "rains": 9501,
      "sized": 9502,
      "tel": 9503,
      "taste": 9504,
      "ʻi": 9505,
      "threw": 9506,
      "infer": 9507,
      "incur": 9508,
      "onia": 9509,
      "rever": 9510,
      "remove": 9511,
      "reactions": 9512,
      "stress": 9513,
      "arro": 9514,
      "toler": 9515,
      "icians": 9516,
      "acles": 9517,
      "ilty": 9518,
      "decommissioned": 9519,
      "deemed": 9520,
      "irts": 9521,
      "igence": 9522,
      "unnamed": 9523,
      "withdrew": 9524,
      "eme": 9525,
      "abroad": 9526,
      "trio": 9527,
      "peoples": 9528,
      "exposed": 9529,
      "osa": 9530,
      "rik": 9531,
      "illing": 9532,
      "quad": 9533,
      "landings": 9534,
      "compound": 9535,
      "worn": 9536,
      "boys": 9537,
      "awny": 9538,
      "autom": 9539,
      "Heavy": 9540,
      "disput": 9541,
      "loose": 9542,
      "wegian": 9543,
      "noot": 9544,
      "rowed": 9545,
      "colog": 9546,
      "mines": 9547,
      "eenth": 9548,
      "ernon": 9549,
      "themed": 9550,
      "visits": 9551,
      "publishing": 9552,
      "Norwegian": 9553,
      "Marge": 9554,
      "mayor": 9555,
      "warning": 9556,
      "provincial": 9557,
      "Carpenter": 9558,
      "readers": 9559,
      "USD": 9560,
      "Blu": 9561,
      "aimed": 9562,
      "Guinness": 9563,
      "reaches": 9564,
      "persons": 9565,
      "differences": 9566,
      "explains": 9567,
      "Administ": 9568,
      "Charlot": 9569,
      "soul": 9570,
      "clearly": 9571,
      "structural": 9572,
      "1903": 9573,
      "Blackie": 9574,
      "Highland": 9575,
      "1895": 9576,
      "ruler": 9577,
      "animation": 9578,
      "Crab": 9579,
      "Magad": 9580,
      "professor": 9581,
      "harmon": 9582,
      "atinum": 9583,
      "railroad": 9584,
      "biological": 9585,
      "Note": 9586,
      "habitats": 9587,
      "Quine": 9588,
      "printing": 9589,
      "pitching": 9590,
      "Emperor": 9591,
      "balance": 9592,
[...]
